#include "magic_wand_model_data.h"

// We need to keep the data array aligned on some architectures.
#ifdef __has_attribute
#define HAVE_ATTRIBUTE(x) __has_attribute(x)
#else
#define HAVE_ATTRIBUTE(x) 0
#endif
#if HAVE_ATTRIBUTE(aligned) || (defined(__GNUC__) && !defined(__clang__))
#define DATA_ALIGN_ATTRIBUTE __attribute__((aligned(4)))
#else
#define DATA_ALIGN_ATTRIBUTE
#endif

const unsigned char g_magic_wand_model_data[] DATA_ALIGN_ATTRIBUTE = {
  // Paste the data of the char array in `src/model.cc` here
  0x08, 0x00, 0x00, 0x00, 0x54, 0x46, 0x4c, 0x33, 0x62, 0xff, 0xff, 0xff,
  0x03, 0x00, 0x00, 0x00, 0x10, 0x00, 0x00, 0x00, 0x24, 0x00, 0x00, 0x00,
  0x78, 0x00, 0x00, 0x00, 0x24, 0x00, 0x00, 0x00, 0x05, 0x00, 0x00, 0x00,
  0x78, 0x05, 0x00, 0x00, 0xb0, 0x04, 0x00, 0x00, 0xe0, 0x02, 0x00, 0x00,
  0x60, 0x02, 0x00, 0x00, 0x54, 0x01, 0x00, 0x00, 0x01, 0x00, 0x00, 0x00,
  0x78, 0x00, 0x00, 0x00, 0x13, 0x00, 0x00, 0x00, 0xd4, 0x2f, 0x00, 0x00,
  0xd0, 0x2f, 0x00, 0x00, 0xdc, 0x2e, 0x00, 0x00, 0x68, 0x2e, 0x00, 0x00,
  0xfc, 0x2d, 0x00, 0x00, 0xac, 0x11, 0x00, 0x00, 0x98, 0x10, 0x00, 0x00,
  0xbc, 0x0e, 0x00, 0x00, 0x60, 0x06, 0x00, 0x00, 0xfc, 0x05, 0x00, 0x00,
  0x78, 0x05, 0x00, 0x00, 0xa8, 0x2f, 0x00, 0x00, 0xa4, 0x2f, 0x00, 0x00,
  0xa0, 0x2f, 0x00, 0x00, 0x9c, 0x2f, 0x00, 0x00, 0x98, 0x2f, 0x00, 0x00,
  0x94, 0x2f, 0x00, 0x00, 0x90, 0x2f, 0x00, 0x00, 0x8c, 0x2f, 0x00, 0x00,
  0x0f, 0x00, 0x00, 0x00, 0x4d, 0x4c, 0x49, 0x52, 0x20, 0x43, 0x6f, 0x6e,
  0x76, 0x65, 0x72, 0x74, 0x65, 0x64, 0x2e, 0x00, 0x00, 0x00, 0x0e, 0x00,
  0x18, 0x00, 0x04, 0x00, 0x08, 0x00, 0x0c, 0x00, 0x10, 0x00, 0x14, 0x00,
  0x0e, 0x00, 0x00, 0x00, 0x14, 0x00, 0x00, 0x00, 0x5c, 0x00, 0x00, 0x00,
  0x60, 0x00, 0x00, 0x00, 0x64, 0x00, 0x00, 0x00, 0x84, 0x00, 0x00, 0x00,
  0x12, 0x00, 0x00, 0x00, 0x04, 0x2f, 0x00, 0x00, 0xa0, 0x2e, 0x00, 0x00,
  0xf8, 0x2d, 0x00, 0x00, 0x98, 0x2d, 0x00, 0x00, 0x30, 0x2d, 0x00, 0x00,
  0xdc, 0x10, 0x00, 0x00, 0xc0, 0x0f, 0x00, 0x00, 0xe4, 0x0d, 0x00, 0x00,
  0xa0, 0x05, 0x00, 0x00, 0x3c, 0x05, 0x00, 0x00, 0xb0, 0x04, 0x00, 0x00,
  0xe8, 0x03, 0x00, 0x00, 0x38, 0x03, 0x00, 0x00, 0xa4, 0x02, 0x00, 0x00,
  0x10, 0x02, 0x00, 0x00, 0x90, 0x01, 0x00, 0x00, 0xfc, 0x00, 0x00, 0x00,
  0x80, 0x00, 0x00, 0x00, 0x01, 0x00, 0x00, 0x00, 0x00, 0x00, 0x00, 0x00,
  0x01, 0x00, 0x00, 0x00, 0x11, 0x00, 0x00, 0x00, 0x08, 0x00, 0x00, 0x00,
  0x1c, 0x04, 0x00, 0x00, 0x58, 0x03, 0x00, 0x00, 0xc8, 0x02, 0x00, 0x00,
  0x24, 0x02, 0x00, 0x00, 0xac, 0x01, 0x00, 0x00, 0x10, 0x01, 0x00, 0x00,
  0x94, 0x00, 0x00, 0x00, 0x10, 0x00, 0x00, 0x00, 0x04, 0x00, 0x00, 0x00,
  0x6d, 0x61, 0x69, 0x6e, 0x00, 0x00, 0x00, 0x00, 0x8e, 0xff, 0xff, 0xff,
  0x00, 0x00, 0x00, 0x09, 0x04, 0x00, 0x00, 0x00, 0x1c, 0x00, 0x00, 0x00,
  0x10, 0x00, 0x00, 0x00, 0x04, 0x00, 0x00, 0x00, 0x4e, 0xd2, 0xff, 0xff,
  0x00, 0x00, 0x80, 0x3f, 0x01, 0x00, 0x00, 0x00, 0x11, 0x00, 0x00, 0x00,
  0x01, 0x00, 0x00, 0x00, 0x10, 0x00, 0x00, 0x00, 0xf6, 0xfb, 0xff, 0xff,
  0x00, 0x00, 0x00, 0x19, 0x01, 0x00, 0x00, 0x00, 0xce, 0xd1, 0xff, 0xff,
  0x10, 0x00, 0x00, 0x00, 0x12, 0x00, 0x00, 0x00, 0x14, 0x00, 0x00, 0x00,
  0x20, 0x00, 0x00, 0x00, 0x02, 0x00, 0x00, 0x00, 0x01, 0x00, 0x00, 0x00,
  0x03, 0x00, 0x00, 0x00, 0x08, 0x00, 0x00, 0x00, 0x49, 0x64, 0x65, 0x6e,
  0x74, 0x69, 0x74, 0x79, 0x00, 0x00, 0x00, 0x00, 0x08, 0xd2, 0xff, 0xff,
  0x00, 0x00, 0x0e, 0x00, 0x18, 0x00, 0x08, 0x00, 0x0c, 0x00, 0x10, 0x00,
  0x07, 0x00, 0x14, 0x00, 0x0e, 0x00, 0x00, 0x00, 0x00, 0x00, 0x00, 0x08,
  0x03, 0x00, 0x00, 0x00, 0x18, 0x00, 0x00, 0x00, 0x0c, 0x00, 0x00, 0x00,
  0x04, 0x00, 0x00, 0x00, 0xdc, 0xd1, 0xff, 0xff, 0x01, 0x00, 0x00, 0x00,
  0x10, 0x00, 0x00, 0x00, 0x03, 0x00, 0x00, 0x00, 0x0f, 0x00, 0x00, 0x00,
  0x05, 0x00, 0x00, 0x00, 0x02, 0x00, 0x00, 0x00, 0x46, 0xd2, 0xff, 0xff,
  0x10, 0x00, 0x00, 0x00, 0x11, 0x00, 0x00, 0x00, 0x14, 0x00, 0x00, 0x00,
  0x30, 0x00, 0x00, 0x00, 0x02, 0x00, 0x00, 0x00, 0x01, 0x00, 0x00, 0x00,
  0x03, 0x00, 0x00, 0x00, 0x1a, 0x00, 0x00, 0x00, 0x73, 0x65, 0x71, 0x75,
  0x65, 0x6e, 0x74, 0x69, 0x61, 0x6c, 0x2f, 0x64, 0x65, 0x6e, 0x73, 0x65,
  0x5f, 0x31, 0x2f, 0x42, 0x69, 0x61, 0x73, 0x41, 0x64, 0x64, 0x00, 0x00,
  0x38, 0xd2, 0xff, 0xff, 0xd6, 0xfd, 0xff, 0xff, 0x00, 0x00, 0x00, 0x08,
  0x03, 0x00, 0x00, 0x00, 0x24, 0x00, 0x00, 0x00, 0x18, 0x00, 0x00, 0x00,
  0x0c, 0x00, 0x00, 0x00, 0x00, 0x00, 0x06, 0x00, 0x08, 0x00, 0x07, 0x00,
  0x06, 0x00, 0x00, 0x00, 0x00, 0x00, 0x00, 0x01, 0x01, 0x00, 0x00, 0x00,
  0x0f, 0x00, 0x00, 0x00, 0x03, 0x00, 0x00, 0x00, 0x0e, 0x00, 0x00, 0x00,
  0x04, 0x00, 0x00, 0x00, 0x01, 0x00, 0x00, 0x00, 0xfe, 0xfc, 0xff, 0xff,
  0x00, 0x00, 0x00, 0x09, 0x01, 0x00, 0x00, 0x00, 0xd6, 0xd2, 0xff, 0xff,
  0x10, 0x00, 0x00, 0x00, 0x10, 0x00, 0x00, 0x00, 0x14, 0x00, 0x00, 0x00,
  0x2c, 0x00, 0x00, 0x00, 0x02, 0x00, 0x00, 0x00, 0x01, 0x00, 0x00, 0x00,
  0x10, 0x00, 0x00, 0x00, 0x15, 0x00, 0x00, 0x00, 0x73, 0x65, 0x71, 0x75,
  0x65, 0x6e, 0x74, 0x69, 0x61, 0x6c, 0x2f, 0x64, 0x65, 0x6e, 0x73, 0x65,
  0x2f, 0x52, 0x65, 0x6c, 0x75, 0x00, 0x00, 0x00, 0x1c, 0xd3, 0xff, 0xff,
  0x00, 0x00, 0x0a, 0x00, 0x10, 0x00, 0x04, 0x00, 0x08, 0x00, 0x0c, 0x00,
  0x0a, 0x00, 0x00, 0x00, 0x02, 0x00, 0x00, 0x00, 0x10, 0x00, 0x00, 0x00,
  0x04, 0x00, 0x00, 0x00, 0x01, 0x00, 0x00, 0x00, 0x0e, 0x00, 0x00, 0x00,
  0x02, 0x00, 0x00, 0x00, 0x0d, 0x00, 0x00, 0x00, 0x03, 0x00, 0x00, 0x00,
  0x7a, 0xfd, 0xff, 0xff, 0x00, 0x00, 0x00, 0x16, 0x01, 0x00, 0x00, 0x00,
  0x52, 0xd3, 0xff, 0xff, 0x10, 0x00, 0x00, 0x00, 0x0f, 0x00, 0x00, 0x00,
  0x14, 0x00, 0x00, 0x00, 0x30, 0x00, 0x00, 0x00, 0x02, 0x00, 0x00, 0x00,
  0x01, 0x00, 0x00, 0x00, 0x70, 0x00, 0x00, 0x00, 0x1a, 0x00, 0x00, 0x00,
  0x73, 0x65, 0x71, 0x75, 0x65, 0x6e, 0x74, 0x69, 0x61, 0x6c, 0x2f, 0x66,
  0x6c, 0x61, 0x74, 0x74, 0x65, 0x6e, 0x2f, 0x52, 0x65, 0x73, 0x68, 0x61,
  0x70, 0x65, 0x00, 0x00, 0x44, 0xd3, 0xff, 0xff, 0xe2, 0xfe, 0xff, 0xff,
  0x00, 0x00, 0x00, 0x05, 0x01, 0x00, 0x00, 0x00, 0x38, 0x00, 0x00, 0x00,
  0x2c, 0x00, 0x00, 0x00, 0x14, 0x00, 0x00, 0x00, 0x00, 0x00, 0x0e, 0x00,
  0x14, 0x00, 0x00, 0x00, 0x10, 0x00, 0x0c, 0x00, 0x08, 0x00, 0x04, 0x00,
  0x0e, 0x00, 0x00, 0x00, 0x03, 0x00, 0x00, 0x00, 0x01, 0x00, 0x00, 0x00,
  0x03, 0x00, 0x00, 0x00, 0x01, 0x00, 0x00, 0x00, 0x01, 0x00, 0x00, 0x00,
  0x0d, 0x00, 0x00, 0x00, 0x01, 0x00, 0x00, 0x00, 0x0c, 0x00, 0x00, 0x00,
  0xe2, 0xd3, 0xff, 0xff, 0x10, 0x00, 0x00, 0x00, 0x0e, 0x00, 0x00, 0x00,
  0x1c, 0x00, 0x00, 0x00, 0x40, 0x00, 0x00, 0x00, 0x04, 0x00, 0x00, 0x00,
  0x01, 0x00, 0x00, 0x00, 0x07, 0x00, 0x00, 0x00, 0x01, 0x00, 0x00, 0x00,
  0x10, 0x00, 0x00, 0x00, 0x22, 0x00, 0x00, 0x00, 0x73, 0x65, 0x71, 0x75,
  0x65, 0x6e, 0x74, 0x69, 0x61, 0x6c, 0x2f, 0x6d, 0x61, 0x78, 0x5f, 0x70,
  0x6f, 0x6f, 0x6c, 0x69, 0x6e, 0x67, 0x32, 0x64, 0x5f, 0x31, 0x2f, 0x4d,
  0x61, 0x78, 0x50, 0x6f, 0x6f, 0x6c, 0x00, 0x00, 0xe4, 0xd3, 0xff, 0xff,
  0xc2, 0xfe, 0xff, 0xff, 0x00, 0x00, 0x00, 0x01, 0x24, 0x00, 0x00, 0x00,
  0x18, 0x00, 0x00, 0x00, 0x04, 0x00, 0x00, 0x00, 0xb4, 0xfe, 0xff, 0xff,
  0x01, 0x00, 0x00, 0x00, 0x01, 0x00, 0x00, 0x00, 0x00, 0x00, 0x00, 0x01,
  0x01, 0x00, 0x00, 0x00, 0x0c, 0x00, 0x00, 0x00, 0x03, 0x00, 0x00, 0x00,
  0x0b, 0x00, 0x00, 0x00, 0x07, 0x00, 0x00, 0x00, 0x09, 0x00, 0x00, 0x00,
  0x72, 0xd4, 0xff, 0xff, 0x10, 0x00, 0x00, 0x00, 0x0d, 0x00, 0x00, 0x00,
  0x1c, 0x00, 0x00, 0x00, 0x2c, 0x00, 0x00, 0x00, 0x04, 0x00, 0x00, 0x00,
  0x01, 0x00, 0x00, 0x00, 0x15, 0x00, 0x00, 0x00, 0x01, 0x00, 0x00, 0x00,
  0x10, 0x00, 0x00, 0x00, 0x0c, 0x00, 0x00, 0x00, 0x74, 0x66, 0x6c, 0x2e,
  0x63, 0x6f, 0x6e, 0x76, 0x5f, 0x32, 0x64, 0x31, 0x00, 0x00, 0x00, 0x00,
  0xb8, 0xd4, 0xff, 0xff, 0x00, 0x00, 0x0e, 0x00, 0x1a, 0x00, 0x08, 0x00,
  0x0c, 0x00, 0x10, 0x00, 0x07, 0x00, 0x14, 0x00, 0x0e, 0x00, 0x00, 0x00,
  0x00, 0x00, 0x00, 0x05, 0x01, 0x00, 0x00, 0x00, 0x3c, 0x00, 0x00, 0x00,
  0x30, 0x00, 0x00, 0x00, 0x14, 0x00, 0x00, 0x00, 0x00, 0x00, 0x0e, 0x00,
  0x18, 0x00, 0x17, 0x00, 0x10, 0x00, 0x0c, 0x00, 0x08, 0x00, 0x04, 0x00,
  0x0e, 0x00, 0x00, 0x00, 0x03, 0x00, 0x00, 0x00, 0x03, 0x00, 0x00, 0x00,
  0x03, 0x00, 0x00, 0x00, 0x03, 0x00, 0x00, 0x00, 0x00, 0x00, 0x00, 0x01,
  0x01, 0x00, 0x00, 0x00, 0x0b, 0x00, 0x00, 0x00, 0x01, 0x00, 0x00, 0x00,
  0x0a, 0x00, 0x00, 0x00, 0x46, 0xff, 0xff, 0xff, 0x00, 0x00, 0x00, 0x11,
  0x01, 0x00, 0x00, 0x00, 0x1e, 0xd5, 0xff, 0xff, 0x10, 0x00, 0x00, 0x00,
  0x0c, 0x00, 0x00, 0x00, 0x1c, 0x00, 0x00, 0x00, 0x40, 0x00, 0x00, 0x00,
  0x04, 0x00, 0x00, 0x00, 0x01, 0x00, 0x00, 0x00, 0x15, 0x00, 0x00, 0x00,
  0x01, 0x00, 0x00, 0x00, 0x08, 0x00, 0x00, 0x00, 0x20, 0x00, 0x00, 0x00,
  0x73, 0x65, 0x71, 0x75, 0x65, 0x6e, 0x74, 0x69, 0x61, 0x6c, 0x2f, 0x6d,
  0x61, 0x78, 0x5f, 0x70, 0x6f, 0x6f, 0x6c, 0x69, 0x6e, 0x67, 0x32, 0x64,
  0x2f, 0x4d, 0x61, 0x78, 0x50, 0x6f, 0x6f, 0x6c, 0x00, 0x00, 0x00, 0x00,
  0x78, 0xd5, 0xff, 0xff, 0x00, 0x00, 0x0e, 0x00, 0x14, 0x00, 0x00, 0x00,
  0x08, 0x00, 0x0c, 0x00, 0x07, 0x00, 0x10, 0x00, 0x0e, 0x00, 0x00, 0x00,
  0x00, 0x00, 0x00, 0x01, 0x30, 0x00, 0x00, 0x00, 0x24, 0x00, 0x00, 0x00,
  0x10, 0x00, 0x00, 0x00, 0x0c, 0x00, 0x10, 0x00, 0x00, 0x00, 0x04, 0x00,
  0x08, 0x00, 0x0f, 0x00, 0x0c, 0x00, 0x00, 0x00, 0x01, 0x00, 0x00, 0x00,
  0x01, 0x00, 0x00, 0x00, 0x00, 0x00, 0x00, 0x01, 0x01, 0x00, 0x00, 0x00,
  0x0a, 0x00, 0x00, 0x00, 0x03, 0x00, 0x00, 0x00, 0x00, 0x00, 0x00, 0x00,
  0x06, 0x00, 0x00, 0x00, 0x08, 0x00, 0x00, 0x00, 0x00, 0x00, 0x0a, 0x00,
  0x0c, 0x00, 0x07, 0x00, 0x00, 0x00, 0x08, 0x00, 0x0a, 0x00, 0x00, 0x00,
  0x00, 0x00, 0x00, 0x03, 0x01, 0x00, 0x00, 0x00, 0xe2, 0xd5, 0xff, 0xff,
  0x10, 0x00, 0x00, 0x00, 0x0b, 0x00, 0x00, 0x00, 0x1c, 0x00, 0x00, 0x00,
  0x28, 0x00, 0x00, 0x00, 0x04, 0x00, 0x00, 0x00, 0x01, 0x00, 0x00, 0x00,
  0x40, 0x00, 0x00, 0x00, 0x03, 0x00, 0x00, 0x00, 0x08, 0x00, 0x00, 0x00,
  0x0b, 0x00, 0x00, 0x00, 0x74, 0x66, 0x6c, 0x2e, 0x63, 0x6f, 0x6e, 0x76,
  0x5f, 0x32, 0x64, 0x00, 0xcc, 0xd5, 0xff, 0xff, 0xc2, 0xd6, 0xff, 0xff,
  0x04, 0x00, 0x00, 0x00, 0x40, 0x00, 0x00, 0x00, 0x05, 0x1a, 0x86, 0xbf,
  0x81, 0xa3, 0xf9, 0xbe, 0x59, 0x76, 0xee, 0xbf, 0xb7, 0x6c, 0xd2, 0xbb,
  0x36, 0xc2, 0x53, 0xbe, 0xbf, 0xd4, 0x17, 0xbc, 0xec, 0xac, 0x87, 0xbf,
  0x92, 0x63, 0x69, 0xbe, 0x56, 0x93, 0xa7, 0xbf, 0x9b, 0x0d, 0xf4, 0xbe,
  0xc0, 0xea, 0xa5, 0xbc, 0xa7, 0x49, 0x77, 0xbe, 0x69, 0xcf, 0xdf, 0xbd,
  0x6c, 0xf3, 0x8f, 0xbf, 0x10, 0xfc, 0xb8, 0xbf, 0x04, 0xfd, 0xb1, 0xbc,
  0x6a, 0xd6, 0xff, 0xff, 0x10, 0x00, 0x00, 0x00, 0x0a, 0x00, 0x00, 0x00,
  0x10, 0x00, 0x00, 0x00, 0x20, 0x00, 0x00, 0x00, 0x01, 0x00, 0x00, 0x00,
  0x10, 0x00, 0x00, 0x00, 0x0d, 0x00, 0x00, 0x00, 0x73, 0x74, 0x64, 0x2e,
  0x63, 0x6f, 0x6e, 0x73, 0x74, 0x61, 0x6e, 0x74, 0x31, 0x00, 0x00, 0x00,
  0x4c, 0xd6, 0xff, 0xff, 0x42, 0xd7, 0xff, 0xff, 0x04, 0x00, 0x00, 0x00,
  0x20, 0x00, 0x00, 0x00, 0xa9, 0x1a, 0x34, 0xbf, 0xbd, 0xf9, 0x20, 0xbf,
  0xf5, 0x6e, 0x9f, 0xbf, 0xc8, 0x8e, 0x54, 0xc0, 0x16, 0x03, 0x2f, 0xc0,
  0x90, 0x3d, 0xd0, 0xbf, 0x4a, 0xd7, 0xef, 0xbf, 0x5d, 0xa7, 0xda, 0xbf,
  0xca, 0xd6, 0xff, 0xff, 0x10, 0x00, 0x00, 0x00, 0x09, 0x00, 0x00, 0x00,
  0x10, 0x00, 0x00, 0x00, 0x20, 0x00, 0x00, 0x00, 0x01, 0x00, 0x00, 0x00,
  0x08, 0x00, 0x00, 0x00, 0x0c, 0x00, 0x00, 0x00, 0x73, 0x74, 0x64, 0x2e,
  0x63, 0x6f, 0x6e, 0x73, 0x74, 0x61, 0x6e, 0x74, 0x00, 0x00, 0x00, 0x00,
  0xac, 0xd6, 0xff, 0xff, 0xa2, 0xd7, 0xff, 0xff, 0x04, 0x00, 0x00, 0x00,
  0x00, 0x08, 0x00, 0x00, 0x01, 0x42, 0x8b, 0xbe, 0xa0, 0x26, 0x91, 0xbd,
  0xef, 0x9a, 0xcf, 0x3d, 0x0d, 0xb5, 0x23, 0xbe, 0x88, 0x14, 0xf0, 0xbd,
  0x78, 0x2b, 0x57, 0xbc, 0x5e, 0xea, 0xf3, 0xbe, 0xe7, 0x4e, 0x1c, 0x3e,
  0xcd, 0xd0, 0x68, 0xbe, 0x74, 0xc5, 0xc3, 0xbd, 0x79, 0x05, 0xb0, 0xbc,
  0x7b, 0x46, 0x2f, 0xbd, 0xfa, 0x78, 0x1b, 0xbe, 0x73, 0x6e, 0xcc, 0xbd,
  0x1c, 0x0f, 0xba, 0xbd, 0x5e, 0xec, 0xc8, 0xbd, 0x97, 0xc8, 0x68, 0x3e,
  0x9f, 0x52, 0x7a, 0xbc, 0x2e, 0xe0, 0x0f, 0xbe, 0xf5, 0x27, 0xb4, 0xbd,
  0x1c, 0x5f, 0x2e, 0xbe, 0xf1, 0xf6, 0xb1, 0xbd, 0x74, 0x3f, 0xc6, 0x3e,
  0x4a, 0x1d, 0x68, 0xbd, 0x19, 0x34, 0xc2, 0x3e, 0x7f, 0x4a, 0x6b, 0x3e,
  0xc5, 0x82, 0x67, 0xbe, 0x9f, 0x2c, 0xad, 0x3d, 0x52, 0x60, 0x00, 0x3e,
  0xd8, 0x0f, 0xa1, 0x3d, 0x79, 0xd6, 0xf5, 0x3c, 0xc2, 0x87, 0x15, 0xbe,
  0xb1, 0xaa, 0x40, 0xbd, 0x26, 0x9a, 0xc5, 0x3c, 0x9d, 0xe3, 0x85, 0x3d,
  0xf6, 0x6e, 0x35, 0xbd, 0xad, 0xf4, 0x87, 0xbe, 0xcd, 0x16, 0x2d, 0xbe,
  0x6d, 0x4a, 0x02, 0x3e, 0xc5, 0x76, 0x58, 0xbe, 0x6d, 0xf6, 0xe6, 0xbd,
  0xc3, 0x08, 0x3e, 0xbb, 0x49, 0xfb, 0xfa, 0x3d, 0x73, 0x85, 0x84, 0xbe,
  0x11, 0x83, 0x8e, 0xbe, 0x2f, 0x88, 0x82, 0xbe, 0x3b, 0x86, 0x33, 0xbf,
  0x30, 0x24, 0x2d, 0xbe, 0x6c, 0x2c, 0x3e, 0x3e, 0x02, 0xab, 0xb8, 0xbe,
  0x7a, 0x81, 0x8e, 0x3d, 0xf9, 0x62, 0xf1, 0x3d, 0x88, 0x3b, 0x76, 0xbe,
  0xfb, 0xe5, 0x6a, 0xbe, 0xea, 0x6d, 0x35, 0xbd, 0x8f, 0x4d, 0xea, 0xbd,
  0xde, 0x0f, 0x8a, 0x3c, 0x79, 0x5e, 0x3a, 0xbe, 0xc9, 0xa1, 0xf6, 0xbc,
  0xd4, 0x5e, 0x31, 0x3d, 0xaa, 0x32, 0x52, 0xbe, 0xd3, 0x54, 0xcd, 0xbd,
  0xe6, 0x12, 0x09, 0x3f, 0xda, 0x6e, 0x24, 0xbd, 0xd7, 0xd1, 0x2a, 0xbd,
  0xf2, 0x46, 0xbd, 0xbc, 0xf4, 0x8a, 0xaf, 0xbe, 0x3a, 0x21, 0xec, 0xbd,
  0xde, 0x1c, 0xa0, 0xbd, 0x48, 0x36, 0x47, 0xbd, 0xfa, 0x9e, 0xe0, 0xbc,
  0x12, 0x95, 0x13, 0xbe, 0x41, 0x4a, 0xe2, 0xbc, 0xb7, 0xe0, 0x55, 0xbd,
  0xcf, 0x39, 0xee, 0xbd, 0x63, 0xab, 0x1d, 0x3f, 0x56, 0x32, 0xa0, 0xbc,
  0xfa, 0x67, 0xb6, 0xbd, 0x52, 0xa2, 0xa9, 0x3b, 0x18, 0xb6, 0xda, 0xbd,
  0xc4, 0x3e, 0x42, 0xbe, 0x8d, 0x78, 0x80, 0xbd, 0x68, 0x7f, 0x2e, 0x3e,
  0xc8, 0x65, 0x07, 0xbd, 0xad, 0x40, 0x0b, 0x3e, 0xd5, 0xbb, 0x4b, 0xbb,
  0xa2, 0x47, 0x15, 0x3e, 0xa0, 0x30, 0x7f, 0x3e, 0x0b, 0x9f, 0xd2, 0xbd,
  0xb0, 0x5a, 0xe6, 0xbd, 0x52, 0xbe, 0x0a, 0x3d, 0x82, 0x27, 0x4b, 0xbe,
  0xf5, 0x19, 0xfa, 0xbd, 0x92, 0xad, 0xbd, 0xbb, 0x52, 0xbc, 0xab, 0xbe,
  0x41, 0xf0, 0xc6, 0xbd, 0x65, 0x09, 0x31, 0xbd, 0x55, 0x6f, 0x6d, 0xbd,
  0x99, 0x53, 0x91, 0xbe, 0xda, 0x71, 0x52, 0xbe, 0x46, 0x86, 0x3d, 0xbe,
  0x88, 0xd8, 0x3d, 0xbd, 0x3a, 0xa8, 0x47, 0xbe, 0x23, 0x03, 0x9b, 0xbe,
  0x9a, 0xb0, 0xa7, 0x3d, 0x13, 0xd8, 0xd1, 0x3d, 0x2a, 0x27, 0xbe, 0xbc,
  0x3c, 0x2a, 0x92, 0xbd, 0xb7, 0x31, 0xd4, 0xbd, 0xb1, 0x28, 0x50, 0xbd,
  0x1e, 0xbf, 0x74, 0xbd, 0xc4, 0xaf, 0x83, 0x3d, 0xb5, 0xf9, 0xc9, 0x3d,
  0x23, 0x15, 0x32, 0x3c, 0x02, 0x7b, 0xd4, 0xbd, 0x30, 0x9c, 0x0c, 0xbe,
  0xbb, 0x1a, 0x27, 0xbe, 0xc0, 0xf9, 0xf4, 0xbd, 0xb7, 0x1b, 0x0c, 0xbe,
  0x7b, 0x9c, 0x0b, 0xbe, 0xd7, 0x6e, 0x05, 0x3e, 0xfe, 0x3a, 0xf5, 0x3c,
  0xc9, 0x1c, 0x20, 0x3f, 0x76, 0x1c, 0x9c, 0xbd, 0xc7, 0x01, 0xbe, 0xbc,
  0xbf, 0xaa, 0x5d, 0xbd, 0x6c, 0xf6, 0x00, 0xbc, 0x7b, 0x1c, 0xd7, 0xbd,
  0xd7, 0x5b, 0x6c, 0xbe, 0xc5, 0x11, 0xa9, 0x3d, 0x9b, 0x16, 0x70, 0xbe,
  0x1f, 0x5b, 0xb9, 0xbe, 0xf4, 0x7f, 0xc9, 0x3b, 0x87, 0x1f, 0x40, 0x3e,
  0x84, 0x80, 0x32, 0xbc, 0x89, 0xec, 0xa2, 0xbe, 0xa9, 0xe4, 0x32, 0xbe,
  0x16, 0xc4, 0x15, 0x3e, 0x00, 0xba, 0x98, 0xbb, 0xa9, 0x5f, 0xa6, 0xbe,
  0xca, 0xdc, 0x2f, 0xbd, 0x37, 0x1a, 0x36, 0xbd, 0x8e, 0xf8, 0x8c, 0x3d,
  0xe8, 0xa4, 0xa9, 0xbe, 0x8a, 0xc7, 0xde, 0xbd, 0x90, 0x73, 0x34, 0x3e,
  0x09, 0xbd, 0x46, 0xbe, 0x3b, 0x03, 0xc9, 0xbb, 0x33, 0xbd, 0x7e, 0x3d,
  0x26, 0x53, 0x6e, 0x3d, 0xfc, 0x98, 0xac, 0xbd, 0xf7, 0xcf, 0xa4, 0xbd,
  0x0b, 0x3b, 0x08, 0x3c, 0xe9, 0x76, 0x3c, 0xbe, 0xd1, 0x48, 0x3a, 0x3d,
  0x18, 0xc2, 0x9d, 0x3d, 0x09, 0x51, 0x7f, 0x3a, 0xa1, 0xa9, 0x11, 0xbe,
  0x26, 0xe3, 0x7a, 0xbe, 0xf2, 0x82, 0x7b, 0xbe, 0xe7, 0x14, 0x89, 0x3d,
  0x7a, 0x94, 0x7e, 0xbd, 0xbc, 0xcb, 0xaf, 0x3d, 0xa7, 0x5b, 0x92, 0x3d,
  0x1f, 0xdc, 0xdf, 0x3d, 0x4f, 0xc0, 0x83, 0xba, 0x99, 0x60, 0x9e, 0xbd,
  0x44, 0x3f, 0xbe, 0x3c, 0xd1, 0xe3, 0x1e, 0xbd, 0x6c, 0x7b, 0x3c, 0x3e,
  0x27, 0x2e, 0x5d, 0x3e, 0x86, 0x47, 0x08, 0x3d, 0x61, 0x7e, 0xe5, 0xbd,
  0x79, 0xfa, 0xbf, 0xbd, 0x9c, 0x3c, 0x50, 0xbd, 0x96, 0x71, 0x93, 0x3e,
  0x60, 0x46, 0xe2, 0xbc, 0xe5, 0x0d, 0x26, 0xbd, 0x32, 0x59, 0x3b, 0x3e,
  0x9a, 0x76, 0x6a, 0x3d, 0xa5, 0xfc, 0xe7, 0x3d, 0xb8, 0x88, 0x49, 0x3d,
  0x24, 0xae, 0xca, 0xbd, 0x52, 0x0f, 0xde, 0xbc, 0xf1, 0xca, 0xd3, 0x3d,
  0xf1, 0x46, 0xc1, 0x3d, 0x31, 0x53, 0x08, 0xbe, 0xbc, 0xb9, 0xd5, 0xbc,
  0x85, 0x23, 0x95, 0xbd, 0x23, 0xa5, 0xac, 0x3d, 0x66, 0x7b, 0x19, 0x3d,
  0x0b, 0xcd, 0xa0, 0x3d, 0xc2, 0x8d, 0x90, 0xbe, 0x0e, 0xfa, 0x96, 0x3e,
  0x55, 0x19, 0xb9, 0xbd, 0x0e, 0x05, 0x9d, 0xbe, 0x09, 0x61, 0xc7, 0xbd,
  0x40, 0xee, 0x07, 0xbe, 0x7c, 0x45, 0xae, 0xbe, 0xe3, 0x46, 0x2d, 0xbe,
  0x27, 0xb1, 0x6e, 0xbe, 0xe2, 0xbc, 0x53, 0xbe, 0x95, 0x8c, 0x1e, 0x3f,
  0xf2, 0x7b, 0x27, 0xbd, 0x64, 0xb3, 0x96, 0xbe, 0x1c, 0xe2, 0x58, 0xbe,
  0x33, 0xc7, 0x4c, 0x3e, 0x01, 0x5c, 0x41, 0xbe, 0x15, 0x46, 0x1c, 0x3c,
  0xd3, 0x97, 0x6f, 0xbe, 0x4d, 0x40, 0x83, 0xbe, 0x06, 0x43, 0xce, 0xbd,
  0xef, 0xce, 0xca, 0xbd, 0xa9, 0xd2, 0x02, 0xbe, 0xd6, 0xa1, 0xb5, 0x3e,
  0xc5, 0xfa, 0x24, 0xbe, 0xc8, 0x2d, 0x06, 0xbd, 0x37, 0x59, 0xd0, 0x3c,
  0x5a, 0xdb, 0x08, 0xbe, 0xda, 0x96, 0x40, 0x3c, 0x29, 0xa2, 0x04, 0x3d,
  0xd0, 0xce, 0xb5, 0x3b, 0x4f, 0x71, 0x0f, 0x3e, 0x9d, 0x58, 0xc6, 0xbd,
  0x67, 0x89, 0x63, 0xbd, 0x10, 0xec, 0xc5, 0xbd, 0x20, 0xdd, 0x96, 0xbe,
  0x40, 0x19, 0x75, 0x3e, 0x3b, 0x62, 0x62, 0xbd, 0x27, 0xf0, 0xeb, 0xbd,
  0x81, 0xfc, 0x18, 0xbe, 0xdc, 0x0a, 0x1e, 0x3e, 0x1d, 0x4a, 0x47, 0xbe,
  0x29, 0xad, 0xa8, 0xbe, 0xd2, 0x10, 0xf7, 0x3e, 0x8e, 0xf3, 0x48, 0x3e,
  0x39, 0xee, 0x1d, 0xbe, 0x14, 0xe1, 0x76, 0xbe, 0x0b, 0x73, 0xad, 0x3e,
  0xe4, 0x2b, 0x35, 0xbe, 0x78, 0xf1, 0x10, 0x3f, 0x40, 0x96, 0x5d, 0xbe,
  0x2e, 0x90, 0xcb, 0xbd, 0x7b, 0x2a, 0x12, 0x3b, 0x64, 0x2f, 0x37, 0xbc,
  0x66, 0x28, 0xcf, 0xbd, 0x70, 0xf3, 0x59, 0xbd, 0xf9, 0xdf, 0x5d, 0xbd,
  0x26, 0xc7, 0x99, 0xbd, 0xc2, 0x8e, 0x46, 0xbc, 0x8a, 0x38, 0xa4, 0x3d,
  0xb1, 0xde, 0xac, 0x3c, 0x7e, 0xa4, 0xb4, 0x3d, 0x6d, 0xbb, 0xf4, 0xbc,
  0xd3, 0xf6, 0xc1, 0x3d, 0x9b, 0x1b, 0x07, 0xbc, 0xbe, 0x5a, 0xc7, 0xbd,
  0x84, 0xab, 0x3c, 0x3d, 0x8f, 0x11, 0x58, 0x3d, 0x44, 0x97, 0xd9, 0x3e,
  0x9a, 0xec, 0xf6, 0x3e, 0x69, 0x13, 0x1f, 0x3e, 0xc5, 0x06, 0x54, 0x3d,
  0xfe, 0xc8, 0x4c, 0x3d, 0x33, 0xc3, 0xba, 0xbe, 0x6a, 0xd7, 0x34, 0xbe,
  0x9a, 0x54, 0xb9, 0xbd, 0x20, 0x61, 0x4a, 0x3d, 0x3a, 0x29, 0x84, 0xbd,
  0xb4, 0x9c, 0x6b, 0xbd, 0xae, 0x30, 0x36, 0x3e, 0xed, 0x4f, 0xb5, 0x3d,
  0x62, 0x7d, 0x24, 0xbe, 0x4e, 0x48, 0x31, 0xbe, 0x6a, 0x9f, 0xcc, 0x3d,
  0x97, 0x03, 0x59, 0xbe, 0x35, 0x72, 0x5c, 0xbe, 0xd5, 0xb7, 0x36, 0xbd,
  0xff, 0xfe, 0x33, 0xbe, 0x5e, 0xe8, 0x8e, 0x3d, 0x45, 0xa6, 0x43, 0x3e,
  0xc1, 0x93, 0x0f, 0xbe, 0xfb, 0xc0, 0xb0, 0x3d, 0xfb, 0x19, 0xcb, 0xbe,
  0x8f, 0x9f, 0x96, 0xbe, 0x79, 0x7f, 0x1e, 0xbe, 0x27, 0x9e, 0x86, 0xbe,
  0x44, 0x49, 0x1f, 0xbe, 0xb4, 0xce, 0x0c, 0xbe, 0x8f, 0xe1, 0xea, 0x3d,
  0xb8, 0xf1, 0x12, 0x3f, 0x4d, 0x5c, 0x41, 0xbe, 0x9a, 0x57, 0x6a, 0xbe,
  0x8c, 0x42, 0xcf, 0xbd, 0x53, 0x04, 0x45, 0xbe, 0xeb, 0xf4, 0x7f, 0xbe,
  0x0f, 0xa4, 0x6c, 0xbe, 0xc8, 0xf9, 0x25, 0xbe, 0x8d, 0x66, 0xfc, 0x3d,
  0x35, 0x9c, 0xe2, 0x3c, 0x15, 0x99, 0x83, 0xbe, 0x24, 0x81, 0x0b, 0xbe,
  0xcc, 0x5d, 0xe2, 0xba, 0x8f, 0xe1, 0x4d, 0xbe, 0xff, 0xc2, 0x8b, 0x3e,
  0x72, 0x2a, 0x2b, 0xbe, 0xa2, 0x20, 0x4c, 0xbe, 0x3f, 0x87, 0x07, 0x3e,
  0x59, 0x80, 0x7d, 0x3e, 0x0f, 0xc4, 0xd5, 0xbd, 0x85, 0x9a, 0xf8, 0xbe,
  0x35, 0xd3, 0x21, 0xbe, 0x4a, 0xdb, 0xab, 0xbd, 0x91, 0x88, 0x7c, 0xbd,
  0xcb, 0x74, 0x00, 0xbe, 0x68, 0xb0, 0x06, 0xbd, 0x64, 0x72, 0x98, 0x3d,
  0x6e, 0x95, 0xb6, 0xbc, 0x98, 0xe3, 0x9c, 0x3e, 0x09, 0x94, 0x01, 0x3e,
  0x5b, 0xee, 0x22, 0x3e, 0x98, 0x09, 0x29, 0x3e, 0x4f, 0xaf, 0xb1, 0x3c,
  0x3d, 0x3f, 0x48, 0x3e, 0xbd, 0x7d, 0x0a, 0x3e, 0x08, 0xcc, 0xdf, 0xbe,
  0xf3, 0x59, 0xa3, 0xbd, 0xa8, 0xe1, 0xf1, 0xbc, 0xe3, 0x95, 0x4e, 0x3e,
  0xb0, 0xa9, 0x99, 0xbe, 0x8c, 0xb8, 0x4e, 0x3e, 0x13, 0x95, 0x0e, 0x3d,
  0x2d, 0x55, 0x80, 0x3c, 0xc9, 0x95, 0xf1, 0xbe, 0xfb, 0x15, 0x0e, 0x3e,
  0x17, 0xa7, 0x37, 0xbd, 0x5f, 0x59, 0x4f, 0xbd, 0x39, 0x2d, 0xa1, 0xbd,
  0xe1, 0x1c, 0x21, 0x3e, 0x35, 0x48, 0x51, 0x3e, 0xd1, 0x69, 0x7a, 0x3d,
  0x6b, 0x7b, 0xbc, 0xbe, 0xa9, 0x01, 0x19, 0x3e, 0xa2, 0x9e, 0x8b, 0xbd,
  0xab, 0x60, 0x79, 0x3e, 0x80, 0x3b, 0xa2, 0xbc, 0xbe, 0xdb, 0x04, 0x3c,
  0xc3, 0x64, 0xac, 0x3d, 0xbb, 0x20, 0x95, 0x3c, 0xb9, 0x80, 0xb4, 0xbe,
  0x1a, 0xc4, 0x38, 0x3e, 0x85, 0x54, 0xc0, 0xbd, 0xbe, 0x37, 0xa7, 0xbd,
  0xdb, 0x51, 0x73, 0xbd, 0xb5, 0x51, 0x81, 0xbd, 0x69, 0xda, 0xf4, 0x3b,
  0x2c, 0x77, 0x46, 0xbe, 0x8d, 0x6a, 0x9f, 0x3c, 0x0c, 0xed, 0x86, 0xbe,
  0xe9, 0x7c, 0x18, 0xbe, 0xb9, 0x44, 0xc0, 0xbd, 0xa9, 0xc2, 0x8d, 0xbd,
  0x62, 0x59, 0x3b, 0xbe, 0x2b, 0xbc, 0xe2, 0xbc, 0xab, 0x3e, 0x1c, 0xbe,
  0xb6, 0x65, 0x97, 0xbe, 0xe4, 0x09, 0x58, 0xbd, 0x84, 0x14, 0x82, 0xbc,
  0x9e, 0x12, 0x10, 0x3c, 0xec, 0xac, 0x90, 0x3d, 0xd1, 0xd4, 0xd1, 0xbc,
  0xae, 0xa5, 0x5a, 0xbe, 0xfa, 0x75, 0x99, 0x3d, 0x10, 0xfe, 0x16, 0x3d,
  0xf8, 0xda, 0x79, 0xbe, 0xbf, 0x44, 0x09, 0xbd, 0x9e, 0x5d, 0xc6, 0xbd,
  0xc5, 0xc3, 0x72, 0xbe, 0x49, 0x1a, 0x43, 0xbd, 0x1d, 0x75, 0x05, 0xbc,
  0x78, 0x74, 0x5d, 0x3d, 0x50, 0x57, 0x2b, 0xbe, 0x6e, 0x5e, 0x3c, 0x3d,
  0x75, 0x6b, 0x10, 0xbe, 0x18, 0x19, 0x50, 0xbe, 0xc3, 0x73, 0x91, 0xbe,
  0x31, 0x07, 0xb7, 0x3e, 0x8b, 0x3c, 0x12, 0x3d, 0xa7, 0x61, 0xe6, 0x3d,
  0xd9, 0xbb, 0x49, 0xbe, 0x88, 0x84, 0x9c, 0x3d, 0xb5, 0x45, 0xa5, 0xbe,
  0x0a, 0x4a, 0x52, 0xbd, 0xed, 0x2a, 0x0c, 0xbe, 0xcd, 0xe7, 0x9f, 0xbe,
  0x3e, 0xee, 0x9e, 0x3e, 0x9a, 0x45, 0x74, 0x3d, 0x7a, 0x8c, 0x30, 0xbe,
  0x0f, 0xe8, 0xf7, 0x3b, 0xd3, 0x39, 0x12, 0xbe, 0x55, 0xb8, 0xd4, 0x3e,
  0x11, 0xa0, 0x16, 0xbe, 0x7d, 0x22, 0x64, 0x3c, 0x23, 0x3e, 0x73, 0xbd,
  0xfd, 0xd2, 0x37, 0xbd, 0x73, 0x44, 0x80, 0xbd, 0xba, 0x06, 0x47, 0x3e,
  0x0d, 0xda, 0xcc, 0x3a, 0xd2, 0xe8, 0x2d, 0xbd, 0xe0, 0x3a, 0x2d, 0xbe,
  0xce, 0x2c, 0x88, 0x3e, 0x83, 0xa1, 0x03, 0xbd, 0xdf, 0x4f, 0xd1, 0x3d,
  0x17, 0x36, 0x62, 0xbd, 0xc0, 0x0f, 0xdc, 0xbd, 0xc0, 0xf5, 0x51, 0xbd,
  0x59, 0xf8, 0x52, 0xbe, 0xeb, 0x88, 0xca, 0xbc, 0x84, 0x4d, 0x08, 0x3f,
  0x48, 0x42, 0xca, 0x3e, 0x19, 0x24, 0xa1, 0x3e, 0xec, 0x0c, 0x24, 0x3d,
  0xbb, 0x29, 0xdf, 0xbc, 0xe4, 0xde, 0x54, 0x3e, 0xa1, 0xf9, 0x8e, 0xbe,
  0x84, 0x40, 0xd4, 0xbd, 0x17, 0x79, 0x31, 0xbe, 0x56, 0xe2, 0x21, 0xbe,
  0xfb, 0x54, 0x00, 0xbe, 0x57, 0x25, 0x8d, 0xbc, 0xe5, 0x5b, 0x8e, 0xbe,
  0xa9, 0x81, 0xa2, 0xbc, 0xec, 0x76, 0xac, 0xbc, 0xd3, 0x02, 0x72, 0xbd,
  0x95, 0x19, 0xbc, 0xbd, 0xc7, 0x7d, 0x17, 0xbe, 0xf0, 0xf3, 0xa5, 0xbd,
  0xb6, 0x85, 0x3d, 0xbd, 0x35, 0xf5, 0x27, 0xbd, 0x04, 0x12, 0x3d, 0xbd,
  0xdd, 0x7f, 0x45, 0x3e, 0x58, 0xd8, 0x88, 0x3c, 0xaa, 0xd1, 0xaa, 0xbd,
  0x7d, 0x67, 0x23, 0xbe, 0xb6, 0x23, 0x00, 0xbe, 0x3d, 0x93, 0x9d, 0xbd,
  0xe0, 0xf6, 0x73, 0x3a, 0xe2, 0x38, 0xdf, 0xbd, 0xe9, 0xc9, 0xc9, 0xbd,
  0x8b, 0x1f, 0xa2, 0xbd, 0xf4, 0xfd, 0x4e, 0xbd, 0x67, 0x4c, 0x61, 0xbe,
  0x70, 0x0d, 0x3d, 0xbe, 0xa1, 0x49, 0xc1, 0xbd, 0x74, 0x5e, 0xec, 0xbe,
  0xbb, 0x3f, 0x5b, 0xbe, 0xf7, 0x29, 0xd3, 0xbd, 0x02, 0xc3, 0x86, 0xbd,
  0x31, 0x75, 0x48, 0xbe, 0x58, 0xa9, 0x3a, 0xbe, 0x7e, 0xa5, 0xfd, 0xbd,
  0xba, 0x28, 0x9a, 0xbd, 0x29, 0xa2, 0x8e, 0xbe, 0x67, 0x52, 0x5e, 0xbe,
  0xdb, 0xa4, 0x99, 0x3d, 0xe8, 0x41, 0xfb, 0xbc, 0x03, 0x2c, 0x6c, 0xbc,
  0x75, 0x7e, 0x0a, 0x3e, 0x7c, 0x0e, 0x96, 0xbd, 0x77, 0xad, 0x1c, 0xbd,
  0x9f, 0xc7, 0xe5, 0x3e, 0xab, 0x38, 0x06, 0xbe, 0x67, 0xf5, 0x86, 0xbd,
  0xc2, 0x1c, 0x3c, 0x3b, 0xda, 0x40, 0x0b, 0x3e, 0x8a, 0x54, 0xcc, 0x3d,
  0x46, 0x7e, 0xc4, 0x3e, 0x60, 0x55, 0x98, 0x3d, 0xae, 0x43, 0xb3, 0x3e,
  0x6a, 0x8a, 0xc4, 0x3e, 0xd5, 0x4f, 0x45, 0xbc, 0x4d, 0x4b, 0x9e, 0xbe,
  0xc8, 0x78, 0x89, 0x3d, 0x88, 0xf8, 0x98, 0xbe, 0xb7, 0x1c, 0x43, 0xbe,
  0x8f, 0x17, 0x9e, 0xbe, 0x34, 0x14, 0x18, 0xbd, 0x4a, 0x9b, 0x97, 0xbd,
  0xd1, 0x7b, 0x9c, 0xbe, 0x6f, 0x6f, 0x6c, 0x3d, 0x0f, 0x46, 0x84, 0x3d,
  0x88, 0x94, 0x25, 0xbe, 0xcf, 0x78, 0x99, 0xbd, 0x25, 0x39, 0x9b, 0x3e,
  0x4f, 0x11, 0x72, 0x3d, 0x17, 0xfd, 0x20, 0x3e, 0x73, 0xad, 0xb6, 0xbd,
  0x91, 0x5d, 0xe5, 0xbd, 0xcb, 0x13, 0xfa, 0xbd, 0xd8, 0xd6, 0x8c, 0xbe,
  0x56, 0x65, 0x36, 0xbe, 0xb0, 0x4e, 0x1b, 0x3e, 0x71, 0xe1, 0xc9, 0xbd,
  0xd9, 0x0f, 0xb7, 0xbd, 0xef, 0x6e, 0x2d, 0x3d, 0x8d, 0xe2, 0xcb, 0x3c,
  0x8d, 0x49, 0xeb, 0xbb, 0x35, 0x4d, 0x8f, 0xbe, 0x53, 0x4c, 0xa3, 0xbd,
  0x32, 0xe9, 0x0f, 0x3e, 0x51, 0x91, 0x94, 0xbc, 0x44, 0x8d, 0x98, 0x3d,
  0x0a, 0xdf, 0xff, 0xff, 0x10, 0x00, 0x00, 0x00, 0x08, 0x00, 0x00, 0x00,
  0x1c, 0x00, 0x00, 0x00, 0x38, 0x00, 0x00, 0x00, 0x04, 0x00, 0x00, 0x00,
  0x10, 0x00, 0x00, 0x00, 0x04, 0x00, 0x00, 0x00, 0x01, 0x00, 0x00, 0x00,
  0x08, 0x00, 0x00, 0x00, 0x1a, 0x00, 0x00, 0x00, 0x73, 0x65, 0x71, 0x75,
  0x65, 0x6e, 0x74, 0x69, 0x61, 0x6c, 0x2f, 0x63, 0x6f, 0x6e, 0x76, 0x32,
  0x64, 0x5f, 0x31, 0x2f, 0x43, 0x6f, 0x6e, 0x76, 0x32, 0x44, 0x00, 0x00,
  0x04, 0xdf, 0xff, 0xff, 0xfa, 0xdf, 0xff, 0xff, 0x04, 0x00, 0x00, 0x00,
  0x80, 0x01, 0x00, 0x00, 0xca, 0xab, 0x05, 0x3e, 0x24, 0x9a, 0x6e, 0x3d,
  0x87, 0xca, 0xc6, 0x3e, 0x8a, 0x0f, 0x6f, 0x3e, 0x71, 0x60, 0xa2, 0xba,
  0xb4, 0x72, 0xe2, 0xbd, 0x7d, 0x82, 0x9c, 0xbe, 0xd7, 0x7a, 0x5e, 0xbe,
  0xfa, 0x83, 0xd6, 0xbd, 0x4e, 0x8b, 0x10, 0x3e, 0xe1, 0x0b, 0x17, 0x3e,
  0xdc, 0xf4, 0x94, 0xbe, 0x5b, 0xc9, 0x6d, 0xbd, 0xb5, 0x7d, 0x9c, 0xbd,
  0x06, 0x2b, 0xc9, 0xbd, 0x98, 0x6c, 0x28, 0xbd, 0x1d, 0xef, 0xd4, 0x3d,
  0xa8, 0x8c, 0xec, 0xbc, 0x0c, 0xb6, 0xb6, 0xbd, 0x3b, 0xad, 0x0f, 0x3d,
  0xfd, 0xd9, 0xb3, 0xbc, 0xd9, 0xd9, 0xb7, 0xbc, 0x1b, 0x22, 0xee, 0x3c,
  0x2c, 0xc0, 0xe0, 0xbd, 0x76, 0x20, 0x6e, 0x3d, 0x10, 0x3a, 0x55, 0x3c,
  0xe5, 0xd3, 0xfd, 0xbd, 0xce, 0x6d, 0x5a, 0xbe, 0xf7, 0x63, 0x5d, 0xbe,
  0x5b, 0xc1, 0x13, 0xbf, 0xfd, 0xe0, 0x69, 0x3e, 0x01, 0x38, 0x0e, 0x3e,
  0xb5, 0x4d, 0xcd, 0x3e, 0x21, 0x48, 0x06, 0x3d, 0x50, 0x16, 0x30, 0x3e,
  0xe4, 0xa1, 0x95, 0x3e, 0x9d, 0x65, 0x4d, 0x3d, 0x5a, 0x67, 0xef, 0x3c,
  0xd7, 0x41, 0x1f, 0xbe, 0x34, 0x28, 0x9a, 0xbd, 0x8a, 0xfa, 0xe5, 0x3e,
  0xc8, 0x10, 0x43, 0xbe, 0x78, 0x63, 0xd1, 0x3d, 0xef, 0x31, 0x5e, 0xbe,
  0xab, 0xfb, 0x1f, 0x3d, 0x66, 0x9e, 0x70, 0xbc, 0x9d, 0xa0, 0x86, 0xbe,
  0xbb, 0xff, 0x12, 0x3e, 0xed, 0x10, 0x35, 0x3d, 0x50, 0xeb, 0x40, 0x3e,
  0x44, 0x5b, 0xd3, 0xbd, 0x2e, 0x0c, 0xc7, 0xbd, 0xc4, 0x3f, 0x07, 0x3e,
  0x3c, 0xe2, 0x63, 0xbe, 0xe7, 0xf9, 0x7b, 0x3d, 0x37, 0x16, 0x9c, 0xbe,
  0x93, 0x22, 0x12, 0x3e, 0x06, 0x16, 0x5b, 0xbd, 0x2e, 0x1e, 0xc1, 0xbd,
  0xd2, 0xbf, 0x62, 0x3d, 0xf6, 0xd4, 0x88, 0xbd, 0x25, 0x7c, 0x92, 0xbd,
  0x59, 0x83, 0x27, 0x3e, 0x22, 0x06, 0x2f, 0xbd, 0xd2, 0xe7, 0x9d, 0xba,
  0xa3, 0xda, 0x95, 0x3d, 0x42, 0x79, 0xac, 0xbc, 0xcb, 0xc9, 0x9b, 0x3c,
  0xd5, 0x96, 0x60, 0x3c, 0xcf, 0x60, 0xb8, 0xbd, 0x49, 0x93, 0xb8, 0x3d,
  0xba, 0xaa, 0x39, 0x3c, 0x7e, 0x86, 0xdc, 0x3e, 0xb9, 0x78, 0x39, 0x3e,
  0xe1, 0xbb, 0x8d, 0x3e, 0x30, 0x5e, 0x4b, 0x3d, 0x23, 0x5e, 0x2c, 0x3e,
  0x9f, 0x2e, 0x07, 0x3d, 0x4f, 0x62, 0x8e, 0xbe, 0xcf, 0xaa, 0x57, 0xbe,
  0x76, 0x0f, 0xb4, 0xbd, 0x02, 0xf0, 0x1c, 0xbe, 0x73, 0x59, 0x66, 0xbe,
  0x4d, 0x90, 0x51, 0xbe, 0xe2, 0x13, 0x9f, 0x3d, 0x8d, 0x7a, 0x94, 0xbe,
  0xe1, 0x8c, 0x4a, 0x3e, 0x4e, 0x21, 0xef, 0xbd, 0x15, 0xe7, 0x94, 0x3d,
  0x4d, 0x9c, 0x22, 0x3e, 0x91, 0x20, 0x08, 0xbe, 0x17, 0x4a, 0xc6, 0x3d,
  0xd1, 0x6a, 0x01, 0xbe, 0x91, 0xa9, 0x31, 0xbd, 0x36, 0x06, 0x4a, 0x3d,
  0xf4, 0x50, 0xc0, 0xbb, 0xe2, 0xe0, 0xff, 0xff, 0x10, 0x00, 0x00, 0x00,
  0x07, 0x00, 0x00, 0x00, 0x1c, 0x00, 0x00, 0x00, 0x38, 0x00, 0x00, 0x00,
  0x04, 0x00, 0x00, 0x00, 0x08, 0x00, 0x00, 0x00, 0x04, 0x00, 0x00, 0x00,
  0x03, 0x00, 0x00, 0x00, 0x01, 0x00, 0x00, 0x00, 0x18, 0x00, 0x00, 0x00,
  0x73, 0x65, 0x71, 0x75, 0x65, 0x6e, 0x74, 0x69, 0x61, 0x6c, 0x2f, 0x63,
  0x6f, 0x6e, 0x76, 0x32, 0x64, 0x2f, 0x43, 0x6f, 0x6e, 0x76, 0x32, 0x44,
  0x00, 0x00, 0x00, 0x00, 0xdc, 0xe0, 0xff, 0xff, 0xd2, 0xe1, 0xff, 0xff,
  0x04, 0x00, 0x00, 0x00, 0xc0, 0x00, 0x00, 0x00, 0xa4, 0x2f, 0xdb, 0x3e,
  0x6f, 0x73, 0x5b, 0xbe, 0xed, 0xff, 0x67, 0xbe, 0xd0, 0x3c, 0xb2, 0xbe,
  0x18, 0x1e, 0x90, 0xbe, 0x61, 0x83, 0x2c, 0xbd, 0x75, 0x39, 0x5f, 0xbe,
  0xfa, 0xce, 0x6a, 0x3e, 0x3f, 0x93, 0x56, 0x3e, 0x73, 0x0f, 0x96, 0xbe,
  0x21, 0x7d, 0x40, 0x3d, 0xfd, 0xf8, 0x22, 0xbe, 0xcd, 0xbd, 0xff, 0x3c,
  0x1f, 0x5f, 0x0e, 0x3e, 0xd8, 0x2e, 0x43, 0x3e, 0x2a, 0x63, 0x48, 0xbe,
  0x40, 0xbd, 0xeb, 0x3e, 0x30, 0xa5, 0x44, 0xbe, 0x55, 0x83, 0x22, 0xbe,
  0xa2, 0x56, 0xdb, 0xbe, 0x92, 0xda, 0x6c, 0xbe, 0x84, 0x08, 0xa7, 0xbd,
  0x4a, 0xa2, 0x9b, 0x3e, 0x56, 0x31, 0x84, 0x3e, 0xe2, 0x6c, 0x87, 0x3e,
  0x67, 0xfc, 0x53, 0xbe, 0x9b, 0x84, 0x20, 0xbb, 0x8d, 0xc4, 0x93, 0xbe,
  0xc4, 0xcf, 0xbb, 0x3d, 0x8b, 0x63, 0x22, 0xbe, 0x74, 0xe2, 0x08, 0x3e,
  0x09, 0xba, 0xd8, 0xbd, 0xe9, 0xb9, 0x22, 0x3d, 0x10, 0x49, 0x9b, 0xbe,
  0x05, 0x28, 0x58, 0xbe, 0x52, 0xcf, 0xd5, 0x3e, 0x72, 0x7c, 0x40, 0xbe,
  0xd6, 0x3b, 0xc2, 0xbd, 0x23, 0x9c, 0xa7, 0x3e, 0xf5, 0xdb, 0x96, 0x3e,
  0x5d, 0x5b, 0x8b, 0x3e, 0x6b, 0xdd, 0x9f, 0xbd, 0xe1, 0x49, 0x85, 0xbc,
  0x40, 0x4f, 0xe2, 0x3d, 0xfa, 0x49, 0xb8, 0xbc, 0xfb, 0x19, 0x95, 0xbf,
  0xf3, 0xd3, 0xe4, 0x3d, 0x1b, 0xbf, 0x64, 0xbe, 0xfa, 0xe1, 0xff, 0xff,
  0x10, 0x00, 0x00, 0x00, 0x06, 0x00, 0x00, 0x00, 0x14, 0x00, 0x00, 0x00,
  0x30, 0x00, 0x00, 0x00, 0x02, 0x00, 0x00, 0x00, 0x03, 0x00, 0x00, 0x00,
  0x10, 0x00, 0x00, 0x00, 0x19, 0x00, 0x00, 0x00, 0x73, 0x65, 0x71, 0x75,
  0x65, 0x6e, 0x74, 0x69, 0x61, 0x6c, 0x2f, 0x64, 0x65, 0x6e, 0x73, 0x65,
  0x5f, 0x31, 0x2f, 0x4d, 0x61, 0x74, 0x4d, 0x75, 0x6c, 0x00, 0x00, 0x00,
  0xec, 0xe1, 0xff, 0xff, 0xe2, 0xe2, 0xff, 0xff, 0x04, 0x00, 0x00, 0x00,
  0x00, 0x1c, 0x00, 0x00, 0xca, 0xf9, 0x9d, 0x3d, 0xb5, 0xe2, 0x99, 0x3d,
  0xe7, 0x20, 0x33, 0xbe, 0x95, 0x03, 0x9f, 0xbd, 0x05, 0x24, 0x50, 0xbd,
  0xb2, 0x5a, 0x53, 0xbe, 0x6c, 0x6f, 0x35, 0xbe, 0x04, 0xcb, 0x6c, 0xbe,
  0xc6, 0x97, 0xac, 0x3d, 0x46, 0x5e, 0x87, 0xbe, 0xe5, 0x10, 0x99, 0xba,
  0xc9, 0xaf, 0x27, 0x3e, 0xa9, 0xad, 0xfc, 0xbd, 0x77, 0xa9, 0x3e, 0xbd,
  0x3d, 0x5d, 0xec, 0xbd, 0x2a, 0xb7, 0x7c, 0xbe, 0x85, 0xbd, 0xe9, 0xbd,
  0x49, 0xec, 0x9f, 0xbc, 0x6c, 0xf7, 0xc1, 0x3d, 0x89, 0xd3, 0xb6, 0x3b,
  0xe6, 0xb1, 0x2c, 0x3e, 0x36, 0x98, 0x74, 0xbe, 0x63, 0x8d, 0x93, 0xbd,
  0x15, 0xb7, 0xdd, 0xbd, 0x1a, 0xda, 0x23, 0xbe, 0x87, 0x72, 0x36, 0x3b,
  0x17, 0x7e, 0x57, 0x3e, 0x53, 0x2b, 0x20, 0x3d, 0x4d, 0xac, 0x4b, 0xbd,
  0x72, 0xf5, 0xbc, 0x3d, 0xc1, 0xed, 0x51, 0xbe, 0x10, 0xc7, 0x0e, 0x3d,
  0x18, 0x40, 0xca, 0xbc, 0x0a, 0x0f, 0xfc, 0xbc, 0x52, 0xae, 0xf2, 0xbd,
  0x26, 0x29, 0x02, 0xbe, 0x15, 0x8f, 0xb3, 0x3d, 0xa7, 0x19, 0x4a, 0xbe,
  0xf3, 0x46, 0x1d, 0xbe, 0x17, 0x93, 0x48, 0xbe, 0xd6, 0x58, 0x1d, 0xbe,
  0x3a, 0x4f, 0x65, 0xbe, 0xd5, 0x62, 0xc1, 0x3d, 0x01, 0xee, 0x8a, 0x3d,
  0x3d, 0xb7, 0x97, 0xbd, 0xe2, 0xff, 0x82, 0xbd, 0x6d, 0x91, 0xee, 0xbd,
  0xea, 0x1e, 0x13, 0xbd, 0x0f, 0x47, 0x6f, 0xbe, 0x9c, 0x26, 0x13, 0xbe,
  0xfd, 0xaa, 0xff, 0x3b, 0x10, 0xb5, 0x25, 0x3e, 0x7f, 0x3a, 0xf6, 0x3b,
  0xb4, 0xdf, 0x06, 0xbe, 0x0c, 0x0c, 0x0c, 0xbd, 0xb7, 0x5b, 0x5b, 0xbe,
  0x4b, 0xd4, 0x8e, 0x3d, 0x7d, 0xa2, 0x91, 0xbe, 0x49, 0xc6, 0x07, 0xbe,
  0x3f, 0x14, 0x2f, 0x3e, 0x36, 0x7c, 0xc3, 0xbd, 0x1a, 0x8a, 0x97, 0x3d,
  0x0c, 0x75, 0x50, 0xbe, 0xec, 0x0f, 0xca, 0xbd, 0x35, 0xe5, 0xa5, 0x3e,
  0x09, 0x8d, 0xc5, 0x3e, 0x2d, 0xdb, 0x36, 0x3d, 0x18, 0xca, 0xcf, 0x3e,
  0xfa, 0xda, 0xe9, 0xbd, 0x06, 0x48, 0x96, 0xbd, 0xb6, 0x09, 0xb6, 0x3e,
  0x75, 0xe0, 0x3d, 0xbd, 0x3a, 0xfc, 0x64, 0xbd, 0x3c, 0xf4, 0xa6, 0x3d,
  0x3f, 0x62, 0x69, 0x3d, 0xfb, 0x60, 0x86, 0x3d, 0x9b, 0x55, 0xba, 0x3c,
  0xc9, 0x55, 0x21, 0x3c, 0xc7, 0x18, 0x19, 0x3e, 0xe4, 0xef, 0x3e, 0xbe,
  0xe6, 0xf1, 0xc4, 0x3d, 0x84, 0x60, 0x80, 0x3e, 0x85, 0x78, 0x6a, 0x3d,
  0xf7, 0x0a, 0x5f, 0x3d, 0xf2, 0xe8, 0xe0, 0xbd, 0x76, 0x3a, 0x06, 0x3b,
  0x5d, 0xfb, 0xd6, 0x3e, 0xeb, 0x54, 0x9e, 0x3d, 0x85, 0x12, 0x4d, 0xbc,
  0x73, 0x7a, 0x86, 0x3e, 0x31, 0x18, 0xb4, 0xbd, 0x21, 0xa6, 0x41, 0x3d,
  0xae, 0x6f, 0x1c, 0xbd, 0x4c, 0xc4, 0x03, 0xbe, 0x8f, 0x5a, 0xd9, 0x3d,
  0xf3, 0x8c, 0xb7, 0xbc, 0x3a, 0x81, 0x02, 0x3e, 0x5b, 0x40, 0xb2, 0x3e,
  0xda, 0xf9, 0xff, 0xbc, 0xd7, 0x9c, 0x58, 0x3e, 0xa7, 0x76, 0xba, 0xbd,
  0x7b, 0xef, 0x1e, 0xbd, 0x10, 0x83, 0x59, 0x3e, 0xdf, 0xd0, 0xb8, 0xbb,
  0x8d, 0x04, 0xa3, 0xbd, 0xcc, 0x9d, 0x6f, 0xbc, 0x7b, 0xa0, 0xfe, 0xbd,
  0xc4, 0xee, 0x77, 0xbd, 0x20, 0x40, 0x2f, 0xbc, 0x13, 0x23, 0xa4, 0x3c,
  0x09, 0xbe, 0xd9, 0x3c, 0x25, 0x4e, 0x36, 0xbe, 0x94, 0x5d, 0x3b, 0x3d,
  0xb1, 0x7c, 0x42, 0x3e, 0xf3, 0x2f, 0x32, 0x3e, 0xdf, 0x1d, 0xbf, 0xbd,
  0xf9, 0xcd, 0x80, 0xbd, 0xf0, 0x1e, 0x03, 0xbc, 0xc2, 0x4b, 0x53, 0x3e,
  0x47, 0x55, 0x05, 0x3d, 0x70, 0x33, 0x19, 0xbd, 0x8f, 0x21, 0x94, 0x3e,
  0x30, 0x1e, 0x0b, 0x3c, 0xbe, 0xba, 0x88, 0x3d, 0x2c, 0x8c, 0x6a, 0x3d,
  0x94, 0xdd, 0x35, 0x3d, 0xa7, 0x02, 0x81, 0x3d, 0xe7, 0x40, 0xce, 0xbd,
  0x96, 0x4d, 0x03, 0x3d, 0x10, 0x8a, 0x88, 0x3d, 0xa2, 0xaa, 0x1f, 0x3d,
  0xd9, 0x8a, 0xc1, 0xbd, 0xb8, 0x5f, 0x01, 0xbc, 0xbe, 0xed, 0xc7, 0xbc,
  0xe2, 0xb8, 0xa8, 0x3c, 0x4b, 0xe9, 0x76, 0xbc, 0x42, 0x87, 0xbe, 0x3d,
  0xb9, 0x21, 0x54, 0xbd, 0x05, 0x32, 0xe2, 0xbd, 0xa9, 0xac, 0x28, 0xbe,
  0x8f, 0x88, 0xa2, 0xbd, 0x32, 0xe6, 0x2e, 0x3d, 0x09, 0xa5, 0x2b, 0x3d,
  0x51, 0x88, 0x0a, 0x3c, 0xc0, 0xcd, 0x53, 0x3d, 0xba, 0x3f, 0xa5, 0xbe,
  0xbd, 0xe8, 0x80, 0xbd, 0xc6, 0xd0, 0x54, 0xbe, 0x5b, 0x2c, 0x1d, 0xbd,
  0xdd, 0xff, 0xa6, 0xbb, 0xf2, 0xa6, 0x81, 0xbd, 0x48, 0x55, 0xbc, 0xbe,
  0x58, 0x54, 0xaf, 0x3d, 0xd4, 0x14, 0xb9, 0xbd, 0xa1, 0x51, 0xa7, 0xbe,
  0x22, 0x7f, 0x42, 0x3e, 0x32, 0x4f, 0x70, 0xbe, 0x12, 0x67, 0x24, 0x3c,
  0x82, 0x17, 0x37, 0xbd, 0xd5, 0xa4, 0x63, 0xbc, 0xb7, 0x79, 0xe5, 0x3c,
  0xf8, 0x44, 0x53, 0x3c, 0xbc, 0xf4, 0x49, 0xbc, 0x3d, 0x47, 0xf1, 0xbd,
  0xd5, 0x0b, 0x22, 0xbe, 0x99, 0xa9, 0x02, 0xbc, 0x82, 0x50, 0xdc, 0xbd,
  0x89, 0x18, 0xbb, 0xbe, 0xa3, 0x05, 0xd7, 0x3d, 0x83, 0x77, 0x2e, 0xbe,
  0xe9, 0x56, 0x1d, 0xbe, 0xd7, 0xc5, 0xe5, 0xbd, 0xbe, 0x36, 0x3c, 0xbe,
  0x59, 0x17, 0x06, 0x3c, 0x85, 0xc0, 0x86, 0x3c, 0x85, 0xf6, 0x28, 0x3d,
  0x0d, 0x5c, 0x28, 0x3d, 0x38, 0xb5, 0xd0, 0x3e, 0xf8, 0x64, 0x16, 0xbe,
  0x10, 0x38, 0x91, 0x3d, 0xa6, 0xb1, 0xf0, 0x3d, 0x32, 0xf9, 0xc0, 0xbc,
  0x4e, 0xfc, 0xa0, 0x3e, 0x56, 0xe4, 0x50, 0xbd, 0xd1, 0xe1, 0x2a, 0xbd,
  0x20, 0xaa, 0x40, 0xbd, 0xcf, 0xdf, 0x85, 0xbd, 0xd2, 0x3c, 0xb3, 0x3d,
  0x73, 0x4a, 0xaa, 0xbd, 0xcf, 0xe4, 0xbf, 0x3d, 0xec, 0x44, 0x3e, 0x3d,
  0x6c, 0x41, 0x72, 0x3b, 0x22, 0x88, 0xa8, 0xba, 0x4a, 0x64, 0x2f, 0x3d,
  0xf2, 0xc2, 0x00, 0x3e, 0xe2, 0x67, 0x45, 0x3e, 0xb9, 0x9c, 0x77, 0xbe,
  0x78, 0x3f, 0x48, 0xbc, 0x37, 0x17, 0x7d, 0x3e, 0x85, 0xcb, 0x5e, 0x3d,
  0x7b, 0xda, 0xcb, 0xbd, 0x11, 0x01, 0x87, 0x3d, 0xa9, 0xf2, 0x25, 0x3d,
  0xab, 0xd5, 0x56, 0xbe, 0x9c, 0x48, 0x60, 0xbc, 0xe4, 0xdc, 0x8f, 0xbd,
  0xfc, 0x6a, 0xff, 0x3c, 0xbe, 0x04, 0x04, 0x3d, 0xfe, 0xe2, 0xb2, 0x3d,
  0x92, 0x04, 0x82, 0xbc, 0x66, 0x48, 0x29, 0xbd, 0x2f, 0x8b, 0xe9, 0x3d,
  0x61, 0x08, 0x81, 0xbd, 0x9b, 0xaa, 0xd2, 0x3b, 0x83, 0x18, 0xe8, 0x3d,
  0x73, 0x11, 0xa0, 0x3d, 0xfe, 0x9f, 0xcd, 0xbb, 0xbb, 0x7d, 0x43, 0x3e,
  0x22, 0x15, 0x64, 0xbc, 0xe5, 0x6b, 0xdc, 0xbd, 0x68, 0x15, 0xa1, 0x3c,
  0x46, 0xd5, 0x3f, 0x3d, 0x9b, 0xd5, 0x77, 0x3d, 0x53, 0xcc, 0x94, 0xbd,
  0xd2, 0x91, 0x36, 0x3e, 0xad, 0xee, 0xbf, 0x3e, 0x3d, 0x9f, 0xb1, 0xbd,
  0x0d, 0x9a, 0x67, 0xbc, 0x82, 0x42, 0xe5, 0x3c, 0xcc, 0x2d, 0x69, 0xbd,
  0x30, 0x9c, 0x97, 0x3e, 0x4b, 0xcb, 0x5a, 0x3e, 0xf5, 0x44, 0x0c, 0xbe,
  0xb3, 0x87, 0xdc, 0x3e, 0x84, 0x37, 0x99, 0xbd, 0x04, 0x01, 0x16, 0x3e,
  0x3c, 0x61, 0x3e, 0x3e, 0xb9, 0xf5, 0x80, 0xbd, 0x95, 0xc8, 0x63, 0x3c,
  0x64, 0xab, 0x14, 0xbe, 0x1b, 0x79, 0x43, 0xbe, 0x15, 0x0a, 0x1e, 0x3e,
  0x91, 0xc5, 0xb6, 0x3d, 0x39, 0xed, 0x26, 0xbe, 0x4c, 0x10, 0xcd, 0xba,
  0x09, 0x20, 0xbc, 0x3b, 0x96, 0x18, 0x0d, 0x3d, 0x27, 0xe2, 0x52, 0xbe,
  0x64, 0x34, 0x05, 0xbe, 0x9d, 0xdb, 0xab, 0xbd, 0xe0, 0x48, 0x86, 0xbe,
  0xae, 0x81, 0xf3, 0xbd, 0xa5, 0x6d, 0x9a, 0xbd, 0xb1, 0xad, 0xfc, 0xbd,
  0xfb, 0x7e, 0xca, 0xbd, 0xf9, 0x36, 0x90, 0x3d, 0x84, 0x2a, 0x34, 0xbf,
  0xe3, 0xc3, 0x8a, 0xbd, 0xea, 0xf4, 0x49, 0xbe, 0x8d, 0x23, 0x43, 0xbe,
  0xe5, 0x22, 0x8c, 0xbd, 0x17, 0xde, 0x80, 0x3c, 0x47, 0x5e, 0x18, 0x3d,
  0x73, 0x2d, 0xa5, 0xbe, 0xe6, 0xe0, 0x1d, 0xbe, 0x46, 0xe6, 0xd1, 0xbd,
  0xa2, 0x8e, 0xb5, 0xbe, 0x63, 0xa4, 0x9c, 0x3c, 0xc1, 0x00, 0x8c, 0xbd,
  0x3a, 0x6c, 0x1b, 0xbc, 0x77, 0x02, 0x16, 0xbf, 0x75, 0x76, 0xbb, 0x3d,
  0x8a, 0x7b, 0x15, 0xbf, 0x9c, 0xf5, 0x43, 0xbc, 0x6c, 0x29, 0xc5, 0xbe,
  0x7e, 0x74, 0xb7, 0xbd, 0xbb, 0x4e, 0xdd, 0xbd, 0xd3, 0xa8, 0x8d, 0xbc,
  0x8f, 0xf5, 0x44, 0xbd, 0x10, 0x14, 0x77, 0xbe, 0x9e, 0x87, 0x6f, 0xbe,
  0x4c, 0xbb, 0x53, 0xbd, 0x4c, 0x31, 0x9b, 0xbe, 0x61, 0xd6, 0x9e, 0x3d,
  0xde, 0x4f, 0x2e, 0xbd, 0xba, 0xe2, 0x4c, 0xbe, 0xe1, 0x5a, 0x46, 0xbf,
  0xd4, 0x5d, 0x29, 0x3d, 0x50, 0x31, 0x17, 0xbe, 0xb6, 0x9a, 0xf3, 0x3e,
  0x7d, 0x40, 0x88, 0xbe, 0x6e, 0xee, 0x2a, 0x3e, 0x3c, 0x42, 0x2c, 0xbd,
  0x44, 0x7c, 0xfd, 0xbc, 0xa9, 0x1b, 0x78, 0x3d, 0x84, 0x42, 0x91, 0xbc,
  0x44, 0xc8, 0x93, 0xbe, 0xac, 0x47, 0x5b, 0xbe, 0x80, 0x89, 0x43, 0xbe,
  0xdc, 0xc1, 0x1d, 0x3e, 0x4b, 0xb2, 0xc6, 0xbc, 0xfe, 0x1c, 0xb7, 0xbe,
  0x06, 0x34, 0x21, 0xbe, 0xbc, 0x33, 0x07, 0x3e, 0x22, 0x87, 0x1b, 0x3e,
  0x90, 0x62, 0x1d, 0x3e, 0x9c, 0xd7, 0x14, 0xbe, 0xd1, 0x39, 0x06, 0x3e,
  0x0c, 0xb6, 0x1d, 0x3c, 0xf7, 0xc9, 0x1e, 0xbc, 0x5b, 0xaa, 0xe2, 0x3e,
  0x84, 0xbd, 0x76, 0x3e, 0x97, 0xd8, 0xfe, 0xbe, 0x6e, 0xc3, 0x15, 0x3e,
  0x67, 0x95, 0x3c, 0x3e, 0xc9, 0x91, 0xbb, 0xbc, 0xbf, 0xa2, 0x23, 0xbc,
  0x5d, 0x0a, 0x69, 0xbe, 0x3a, 0x78, 0x68, 0xbd, 0x2b, 0x22, 0xb2, 0x3d,
  0x31, 0x53, 0xe7, 0x3d, 0x43, 0x16, 0xa7, 0x3e, 0x88, 0x55, 0x54, 0xbd,
  0x95, 0x96, 0x71, 0x3e, 0x9f, 0x38, 0xc1, 0xbc, 0x3e, 0x05, 0x65, 0x3d,
  0xdb, 0x2d, 0x6c, 0x3e, 0xc6, 0x5c, 0x07, 0x3e, 0xed, 0xd0, 0xce, 0xbc,
  0x00, 0x7d, 0x2d, 0x3e, 0x52, 0x55, 0x9e, 0xbd, 0xd2, 0x0c, 0xc2, 0xbd,
  0xcc, 0x09, 0x2b, 0x3d, 0xc1, 0xce, 0x31, 0xbd, 0x49, 0x78, 0x51, 0xbd,
  0xed, 0xb5, 0x37, 0xbc, 0x63, 0x77, 0xa6, 0xbc, 0x8a, 0xe9, 0x0b, 0x3e,
  0x6f, 0x81, 0x03, 0xbd, 0xa7, 0x9e, 0x7b, 0xbd, 0xf8, 0x56, 0x3e, 0x3e,
  0xf3, 0x3c, 0x69, 0xbe, 0xc1, 0xb4, 0x81, 0xbd, 0xa1, 0xcc, 0x99, 0xbd,
  0x37, 0x80, 0x62, 0x3d, 0x10, 0x16, 0x0e, 0x3e, 0x41, 0xaa, 0xc1, 0xbc,
  0xc5, 0x67, 0x0a, 0x3d, 0x64, 0x25, 0x3e, 0xbe, 0xc6, 0x20, 0x38, 0xbe,
  0xfa, 0x35, 0x59, 0xbe, 0xcb, 0xd4, 0x88, 0xbc, 0xb5, 0x40, 0x1b, 0xbe,
  0x72, 0xae, 0xc9, 0x3c, 0xfa, 0xe2, 0xc3, 0xbd, 0x8d, 0x8a, 0xf0, 0x3c,
  0xb4, 0x73, 0x2d, 0x3e, 0x49, 0xd0, 0xf1, 0xbd, 0x27, 0xfa, 0x71, 0x3d,
  0x87, 0xb4, 0x36, 0xbd, 0xd5, 0x40, 0x12, 0xbd, 0x33, 0x7a, 0xfc, 0x3d,
  0x43, 0xa4, 0x3e, 0x3d, 0xec, 0x41, 0x61, 0x3e, 0x05, 0x99, 0xf9, 0x3c,
  0xeb, 0xf3, 0x0b, 0xbe, 0x21, 0x0b, 0x3f, 0x3c, 0xc5, 0x47, 0x23, 0xbe,
  0xcc, 0x8b, 0x0e, 0xbc, 0x3a, 0xbd, 0xfe, 0xbc, 0xf6, 0x01, 0xac, 0x3d,
  0x2b, 0x52, 0xaa, 0xbd, 0xbb, 0xec, 0x85, 0xbc, 0x82, 0xd0, 0x2c, 0xbe,
  0x53, 0xed, 0x13, 0xbe, 0xcb, 0x8b, 0x1b, 0xbe, 0x8a, 0x59, 0xc2, 0x3d,
  0xaa, 0x34, 0xc7, 0x3d, 0x69, 0xec, 0xe8, 0x3d, 0x4d, 0x7a, 0x9c, 0x3d,
  0xcd, 0x33, 0x9c, 0x3d, 0x45, 0x34, 0x61, 0x3d, 0x70, 0x90, 0xde, 0x3c,
  0x4e, 0xa1, 0xbf, 0x3d, 0x3e, 0xba, 0xce, 0x3d, 0xaa, 0x33, 0xdf, 0x3d,
  0xf6, 0x2d, 0x7a, 0x3d, 0xd7, 0x22, 0x10, 0x3c, 0x1f, 0xc0, 0x11, 0xbe,
  0x50, 0xa8, 0x57, 0xbd, 0x23, 0xe9, 0x69, 0x3e, 0xa9, 0x9d, 0x3f, 0xbe,
  0xee, 0xc5, 0xd6, 0xbd, 0x0f, 0xbf, 0x07, 0xbe, 0x90, 0x71, 0xbc, 0x3d,
  0x8b, 0x9f, 0x49, 0x3c, 0x1e, 0x70, 0xcb, 0xbd, 0xb7, 0x6d, 0x3e, 0xbd,
  0x29, 0xea, 0x22, 0xbe, 0xef, 0xa9, 0xf2, 0x3d, 0xf3, 0x9f, 0xad, 0xbd,
  0xb5, 0xe3, 0x93, 0x3d, 0x6b, 0x13, 0x02, 0x3d, 0x06, 0x3f, 0xa5, 0x3d,
  0x53, 0xb6, 0x1f, 0x3e, 0xc8, 0x22, 0x27, 0xbe, 0x1c, 0x31, 0x3d, 0x3d,
  0xdc, 0x56, 0x0b, 0xbe, 0xab, 0x7c, 0xbe, 0xbd, 0x9f, 0x72, 0x0f, 0x3e,
  0xcd, 0xbd, 0x18, 0x3e, 0x5f, 0x28, 0x81, 0x3d, 0xbe, 0x98, 0xc6, 0xbd,
  0x2b, 0x71, 0xe5, 0x3d, 0xd7, 0x44, 0x23, 0xbd, 0xf4, 0x0f, 0x22, 0x3e,
  0xa6, 0xe8, 0x83, 0x3c, 0x57, 0xde, 0x69, 0xbe, 0x59, 0x9d, 0x99, 0xbe,
  0x20, 0x0e, 0x3c, 0xbe, 0x7a, 0xcf, 0x56, 0x3e, 0xb9, 0x29, 0x8f, 0xbc,
  0xc4, 0xa1, 0x02, 0x3e, 0xd7, 0xa6, 0x14, 0xbe, 0xee, 0x68, 0x48, 0x3c,
  0x6b, 0x6f, 0xf8, 0xbd, 0xcb, 0xe2, 0x58, 0xbe, 0x93, 0xb0, 0x1a, 0x3e,
  0xbd, 0x65, 0x4f, 0x3d, 0xd1, 0xff, 0x96, 0x3d, 0x75, 0xa8, 0x2e, 0xbe,
  0xbb, 0xdc, 0xd9, 0x3d, 0x8e, 0x19, 0xac, 0xbc, 0x88, 0x07, 0x95, 0x3d,
  0xc3, 0x87, 0xfd, 0xbd, 0x91, 0xe9, 0x0b, 0xbe, 0x56, 0x3b, 0x2a, 0x3d,
  0x11, 0xe7, 0x80, 0xbe, 0xed, 0xa4, 0xf1, 0x3d, 0x8f, 0x20, 0x29, 0xbe,
  0x93, 0x80, 0x00, 0xbe, 0xfd, 0x1e, 0x08, 0xbe, 0x47, 0x2e, 0x36, 0xbe,
  0xc4, 0xac, 0x7f, 0x3d, 0x32, 0xe4, 0x52, 0xbd, 0x00, 0x5c, 0xcf, 0xbd,
  0x85, 0xc4, 0xd3, 0x3d, 0xc8, 0x28, 0x88, 0xbd, 0x92, 0x5c, 0xc8, 0xbd,
  0x93, 0x72, 0x36, 0x3e, 0x47, 0xa3, 0x02, 0xbf, 0x96, 0x5d, 0x80, 0x3d,
  0xe5, 0x88, 0x98, 0x3e, 0xab, 0x45, 0x16, 0x3b, 0xb8, 0xfa, 0x55, 0xbe,
  0x00, 0x55, 0xbb, 0xbd, 0xa5, 0x2d, 0x1c, 0xbe, 0x6d, 0xae, 0x7c, 0xbe,
  0x9a, 0xa5, 0xba, 0x3d, 0x61, 0xfc, 0x57, 0xbc, 0x3d, 0xfa, 0x2e, 0xbe,
  0x58, 0xa9, 0x99, 0xbe, 0xc2, 0x22, 0x1a, 0xbe, 0x18, 0xeb, 0x50, 0x3e,
  0x51, 0x0f, 0x3d, 0xbe, 0x9d, 0x90, 0x75, 0xbd, 0x5a, 0x8b, 0x3d, 0xbe,
  0x42, 0xbe, 0x10, 0x3e, 0x15, 0x19, 0x32, 0x3f, 0xca, 0x47, 0x0e, 0x3d,
  0x44, 0xdb, 0x13, 0xbd, 0x2c, 0x15, 0xbc, 0x3d, 0x4f, 0x6f, 0x92, 0xbe,
  0xd8, 0x33, 0x12, 0xbd, 0xf0, 0x12, 0x1b, 0x3e, 0x4b, 0x01, 0x1c, 0xbe,
  0xe6, 0x4d, 0xb6, 0x3d, 0xf4, 0x1c, 0x13, 0xbf, 0x2b, 0xd1, 0xec, 0xbd,
  0x8e, 0xfc, 0xae, 0x3e, 0x11, 0x87, 0xdb, 0xbc, 0x11, 0x70, 0x81, 0x3d,
  0x8a, 0x14, 0xde, 0x3c, 0x40, 0xe4, 0x9b, 0xbb, 0xf0, 0xb6, 0xd1, 0x3e,
  0x4d, 0xa9, 0xa9, 0x3d, 0x15, 0xc1, 0xe8, 0x3d, 0x5f, 0xc5, 0x12, 0x3e,
  0x41, 0x8e, 0x58, 0xbe, 0x3c, 0xa3, 0xcd, 0x3d, 0xe9, 0xb3, 0xd2, 0x3e,
  0xfa, 0x36, 0x04, 0x3e, 0x42, 0x45, 0x02, 0x3e, 0xe1, 0xe9, 0x4a, 0xbe,
  0x3d, 0xbc, 0xd9, 0xbd, 0x8f, 0x29, 0xdc, 0xbc, 0x61, 0x09, 0x43, 0xbd,
  0x70, 0x09, 0x0e, 0xbe, 0x52, 0x83, 0x79, 0xbe, 0xa8, 0xe4, 0xc5, 0xbb,
  0x7a, 0xb7, 0xbc, 0x3e, 0xd9, 0xec, 0x36, 0x3c, 0x03, 0xae, 0xb5, 0x3c,
  0x6e, 0xcd, 0xf7, 0x3d, 0xf5, 0x28, 0x1d, 0xbe, 0x27, 0xe5, 0x81, 0x3d,
  0xb8, 0x7d, 0xb0, 0x3e, 0xbf, 0x1e, 0x50, 0xbd, 0xda, 0xc4, 0x98, 0x3d,
  0x37, 0xae, 0x00, 0xbd, 0x9f, 0x63, 0xb7, 0xbd, 0xd6, 0x44, 0x9f, 0x3d,
  0xcc, 0x00, 0x23, 0xbd, 0x66, 0xca, 0x24, 0xbd, 0xf1, 0x27, 0x0f, 0xbd,
  0x15, 0xff, 0xc5, 0xbd, 0x50, 0x95, 0x4d, 0x3e, 0x8b, 0x6a, 0xcb, 0x3d,
  0xad, 0x47, 0x0a, 0x3e, 0x8f, 0x6b, 0x48, 0x3e, 0x25, 0x54, 0x3b, 0xbe,
  0x82, 0x2b, 0xed, 0xbc, 0x59, 0x9d, 0x56, 0x3e, 0x21, 0xef, 0xc0, 0x3d,
  0x5a, 0xdd, 0x01, 0xbd, 0xad, 0x62, 0x76, 0xbe, 0x97, 0x81, 0x82, 0xbe,
  0x49, 0xc7, 0xa2, 0x3d, 0x40, 0x5d, 0x6d, 0xbe, 0x42, 0xf8, 0x85, 0x3d,
  0x21, 0x11, 0x03, 0xbf, 0xc6, 0xa8, 0xec, 0xbd, 0x40, 0x13, 0x91, 0x3e,
  0x90, 0x26, 0x6c, 0x3b, 0xcf, 0x0f, 0x00, 0xbd, 0xac, 0x11, 0xde, 0x3d,
  0x83, 0xcb, 0x3f, 0xbe, 0x59, 0xf6, 0x69, 0x3d, 0xbc, 0xfe, 0x8c, 0x3e,
  0xb5, 0x4a, 0x1a, 0xbd, 0x3f, 0xdf, 0x43, 0xbd, 0x68, 0x92, 0x73, 0xbe,
  0xd0, 0x9c, 0x1e, 0xbf, 0xe0, 0xc7, 0x29, 0x3e, 0x81, 0x85, 0xf7, 0xbd,
  0x3b, 0x32, 0x35, 0x3e, 0x1c, 0x09, 0x19, 0xbd, 0x3d, 0x3a, 0x1d, 0xbe,
  0x86, 0x77, 0x71, 0x3e, 0x19, 0x9d, 0xc4, 0x3c, 0xce, 0xff, 0xc2, 0xbd,
  0xf9, 0x28, 0x10, 0xbd, 0x42, 0x44, 0x4b, 0xbd, 0x87, 0x19, 0x5f, 0xbd,
  0xdf, 0x35, 0x1d, 0x3e, 0x35, 0xfb, 0x12, 0xbe, 0x1a, 0x50, 0xdb, 0xbd,
  0x0c, 0xb5, 0x91, 0xbe, 0x7b, 0x34, 0x82, 0xbe, 0x8e, 0xf4, 0x6b, 0x3e,
  0xfa, 0xfe, 0x12, 0xbe, 0xb9, 0x4f, 0x0c, 0xbe, 0x87, 0x39, 0x36, 0x3e,
  0xe0, 0x8f, 0x76, 0xbe, 0xaa, 0xcd, 0x5f, 0xbd, 0xdf, 0x94, 0xa6, 0x3b,
  0x05, 0xb1, 0x78, 0xbe, 0x37, 0xf2, 0x9e, 0xbe, 0x89, 0xe4, 0x95, 0x3e,
  0x8b, 0x97, 0x89, 0xbd, 0x5a, 0xf3, 0xda, 0xbd, 0xe1, 0x07, 0x40, 0x3e,
  0xfe, 0x8a, 0xe1, 0x3c, 0x1d, 0xa1, 0x0f, 0x3e, 0x07, 0x58, 0x90, 0xbc,
  0x1d, 0x47, 0x51, 0xbe, 0x94, 0x1c, 0x54, 0x3e, 0xce, 0xae, 0x6e, 0xbe,
  0xb8, 0xce, 0xaa, 0xbc, 0xfa, 0x9d, 0x61, 0x3e, 0x6e, 0x10, 0xa1, 0xbd,
  0xc4, 0x2c, 0x62, 0xbd, 0x36, 0x57, 0x94, 0xbd, 0x79, 0xb1, 0x68, 0xbe,
  0x04, 0x36, 0xbf, 0x3e, 0x54, 0xb1, 0x93, 0xbd, 0x1f, 0x0c, 0x03, 0xbe,
  0xc2, 0xa7, 0xbc, 0x3d, 0xb6, 0xf9, 0x8b, 0xbe, 0xec, 0x7d, 0x2b, 0x3d,
  0x55, 0xb1, 0x2a, 0x3e, 0xc7, 0x61, 0xb1, 0xbe, 0x98, 0x28, 0xf7, 0x3e,
  0x28, 0xba, 0xa2, 0xbc, 0x1b, 0x5b, 0x51, 0xb8, 0xf4, 0xc2, 0xc9, 0xba,
  0xcf, 0xf9, 0xcd, 0x3d, 0xb3, 0xde, 0x08, 0xbd, 0x53, 0xd7, 0x89, 0x3d,
  0xfd, 0x31, 0x2f, 0xbc, 0x74, 0x23, 0xc8, 0x3d, 0x66, 0xbc, 0x4f, 0x3e,
  0xa5, 0x8e, 0xb9, 0xbd, 0x9d, 0x4b, 0x1b, 0x3e, 0x2f, 0x10, 0xc2, 0x3d,
  0x83, 0xbc, 0xc6, 0xbc, 0xe6, 0xe4, 0xb3, 0x3e, 0x83, 0xb9, 0x73, 0xbe,
  0xd5, 0x8f, 0xd7, 0x3d, 0xe7, 0x08, 0x0a, 0x3e, 0xfc, 0x09, 0xc0, 0x3e,
  0xf0, 0xb4, 0x2c, 0x3e, 0x17, 0x30, 0x60, 0x3d, 0x8d, 0xd0, 0x72, 0xbb,
  0x84, 0xe1, 0x8b, 0x3e, 0xd1, 0xc8, 0x95, 0x3a, 0xd9, 0x03, 0x1e, 0x3e,
  0x63, 0x8e, 0x02, 0x3e, 0xa6, 0xe8, 0xd3, 0xbc, 0x42, 0xfd, 0x6f, 0xbd,
  0x89, 0x27, 0x8f, 0xbb, 0x1d, 0x3c, 0x7d, 0x3e, 0x1a, 0x2c, 0xa6, 0x3e,
  0xb5, 0x00, 0x24, 0xbb, 0x04, 0x9e, 0x14, 0x3e, 0xee, 0xf8, 0x5c, 0x3d,
  0xd5, 0x4b, 0xaa, 0x3e, 0xc8, 0xb9, 0x9f, 0xbd, 0x67, 0x99, 0x4a, 0xbe,
  0xb6, 0x4a, 0x81, 0xbd, 0x5f, 0x35, 0xbf, 0x3d, 0x0a, 0x00, 0xab, 0xbe,
  0x33, 0x45, 0xc4, 0x3e, 0x11, 0x7b, 0x9f, 0xbd, 0x3c, 0xbd, 0xaa, 0xbe,
  0x81, 0x16, 0x0c, 0x3e, 0x1c, 0x5f, 0x7b, 0xbe, 0x35, 0xa6, 0x65, 0x3e,
  0x64, 0x62, 0x55, 0x3e, 0x82, 0xf8, 0x39, 0xbd, 0x4d, 0x0c, 0x82, 0x3e,
  0x3e, 0x89, 0x49, 0x3b, 0xfb, 0x78, 0x13, 0xbb, 0xb4, 0x5d, 0x98, 0x3b,
  0x6a, 0xaf, 0x23, 0xbd, 0x6e, 0x7d, 0xcd, 0xbc, 0xf5, 0xe9, 0x06, 0x3e,
  0x49, 0x2b, 0xa8, 0xbe, 0xdc, 0x72, 0x99, 0x3c, 0xf1, 0xfe, 0x1e, 0xbc,
  0xfd, 0x90, 0xe3, 0xbd, 0x34, 0xa7, 0x1f, 0x3e, 0x11, 0x24, 0xe1, 0xbe,
  0x1e, 0x69, 0x94, 0x3e, 0xad, 0xd6, 0x3a, 0xbd, 0xb5, 0xe1, 0x10, 0xbe,
  0x43, 0x28, 0x3c, 0x3d, 0xc1, 0xea, 0x90, 0xbe, 0x03, 0x3a, 0x4b, 0x3c,
  0x41, 0x0e, 0xe6, 0xbc, 0xd4, 0xbf, 0x54, 0x3d, 0xfc, 0xe2, 0x11, 0xbd,
  0x5c, 0xd0, 0x5f, 0xbe, 0x67, 0x42, 0x78, 0xbd, 0x89, 0xa2, 0x95, 0xbd,
  0x0e, 0x44, 0xcb, 0xbd, 0x1a, 0x55, 0xb8, 0xbd, 0x38, 0xc3, 0x37, 0x3d,
  0xd9, 0x18, 0xb6, 0xbd, 0x86, 0xed, 0x19, 0xbe, 0x2e, 0x55, 0x3a, 0x3e,
  0xcd, 0x3c, 0xb2, 0xbd, 0x38, 0x3f, 0xeb, 0xbd, 0x3b, 0x05, 0x14, 0x3e,
  0x68, 0x4b, 0x28, 0xbe, 0xdb, 0xb5, 0x02, 0x3d, 0x7e, 0x79, 0x2c, 0x3e,
  0x59, 0x12, 0x38, 0xbd, 0x32, 0xe0, 0x69, 0xbe, 0xed, 0xe5, 0x87, 0xbd,
  0x5d, 0x04, 0x4b, 0xbe, 0xa7, 0xca, 0x89, 0xbd, 0x9e, 0x3e, 0x92, 0x3c,
  0x9f, 0x24, 0x79, 0x3d, 0xb3, 0xbe, 0xb1, 0x3d, 0x64, 0x84, 0x0d, 0xbe,
  0x80, 0x0b, 0x2d, 0xbe, 0xe2, 0x6a, 0x81, 0xbc, 0xcd, 0xae, 0x13, 0xbe,
  0x39, 0x83, 0xcc, 0xbd, 0x72, 0x97, 0xae, 0x3d, 0x30, 0xe0, 0xbf, 0x3e,
  0xd7, 0x0e, 0x11, 0x3e, 0x21, 0x05, 0x77, 0xbe, 0xba, 0x6e, 0x67, 0xbe,
  0x8a, 0xf3, 0x88, 0x3e, 0x39, 0xc7, 0x4d, 0xbe, 0x0b, 0x38, 0x70, 0xbd,
  0xbd, 0x4a, 0x95, 0x3e, 0xd4, 0xf3, 0xfd, 0x3c, 0x92, 0xe4, 0x36, 0x3e,
  0x5d, 0x10, 0x95, 0x3c, 0xcb, 0xc6, 0xdc, 0xbd, 0x88, 0xd9, 0x46, 0x3d,
  0x4b, 0xee, 0x8f, 0xbd, 0xfc, 0xec, 0x95, 0x3e, 0xcb, 0xc1, 0x9a, 0xbb,
  0x11, 0x71, 0x36, 0x3b, 0x9f, 0xbb, 0x9a, 0x3e, 0x7a, 0x40, 0x65, 0xbd,
  0x69, 0x39, 0xb5, 0x3d, 0xa9, 0x81, 0x2d, 0x3e, 0x3d, 0x81, 0x3d, 0x3e,
  0x1e, 0x77, 0x36, 0xbe, 0x93, 0xf2, 0x6d, 0x3e, 0xc8, 0x32, 0x03, 0xbe,
  0x6a, 0x82, 0x0f, 0x3e, 0x39, 0xa8, 0x2a, 0xbe, 0x32, 0x10, 0xaa, 0x3c,
  0xbe, 0x00, 0x21, 0xbe, 0xa4, 0x94, 0xcc, 0x3d, 0x97, 0x07, 0x50, 0x3e,
  0x61, 0xd8, 0x03, 0x3e, 0x4a, 0x18, 0x09, 0x3e, 0xf0, 0xc3, 0x8a, 0x3e,
  0x6c, 0x6a, 0x98, 0xbd, 0x15, 0xec, 0x48, 0xbe, 0x1e, 0x01, 0x3a, 0xbd,
  0xc7, 0xf8, 0xa5, 0x3d, 0xb5, 0xff, 0xcb, 0x3d, 0x85, 0x6e, 0x7e, 0x3e,
  0x43, 0xb9, 0x8f, 0x3d, 0x92, 0x51, 0xf8, 0x3d, 0x6c, 0x43, 0xaa, 0x3d,
  0xa8, 0xc5, 0xb0, 0xbd, 0x8a, 0x55, 0x79, 0xbc, 0x63, 0x78, 0xe9, 0x3d,
  0xd8, 0x55, 0x49, 0xbe, 0x81, 0x93, 0xe0, 0x3c, 0x35, 0xb1, 0xaf, 0xbd,
  0xf3, 0xbc, 0x74, 0x3d, 0x68, 0xaf, 0x41, 0xbe, 0x93, 0x9b, 0x0a, 0xbe,
  0xbe, 0xba, 0x78, 0x3d, 0x20, 0xab, 0x84, 0xbd, 0x43, 0xc9, 0xc3, 0x3d,
  0xf4, 0x8c, 0xa4, 0x3d, 0x5a, 0xff, 0xfb, 0x3d, 0x62, 0xe3, 0x18, 0x3e,
  0x48, 0x64, 0x3b, 0xbc, 0xfa, 0xeb, 0x00, 0xbe, 0x9f, 0x9b, 0x1e, 0xbe,
  0x8f, 0x30, 0xde, 0xbd, 0x3d, 0xd7, 0xfb, 0xbd, 0x0b, 0x9b, 0x11, 0xbd,
  0x91, 0x1c, 0xc7, 0xbd, 0x8e, 0x41, 0x01, 0x3e, 0xe9, 0xb1, 0x1e, 0xbe,
  0xfe, 0x08, 0xab, 0xbd, 0x57, 0x9c, 0xde, 0x3d, 0x2f, 0x3e, 0x1d, 0x3c,
  0x28, 0xa8, 0x0a, 0x3e, 0x09, 0xdf, 0x7c, 0x3e, 0xb3, 0x17, 0xc5, 0x3d,
  0x45, 0x2a, 0x83, 0x3d, 0x50, 0xf5, 0xe1, 0xbd, 0xb4, 0xda, 0xc4, 0xbd,
  0x3a, 0x63, 0x81, 0x3d, 0x3c, 0x4d, 0x92, 0xba, 0x8a, 0xbc, 0xb8, 0xbd,
  0x7e, 0xf1, 0x79, 0xbe, 0xe6, 0x55, 0x24, 0xbe, 0xfe, 0x6c, 0x58, 0x3e,
  0xa6, 0xe3, 0x2e, 0xbe, 0xb1, 0xc8, 0x4b, 0x3e, 0xf3, 0x95, 0x82, 0x3d,
  0x79, 0xa9, 0x4d, 0xbe, 0x68, 0xcc, 0x78, 0x3d, 0x84, 0x78, 0x52, 0x3d,
  0x02, 0x8e, 0x39, 0x3e, 0x38, 0xb3, 0xda, 0xbd, 0xd7, 0xa7, 0xf1, 0xbc,
  0xd6, 0x81, 0x53, 0xbe, 0x3d, 0x60, 0x30, 0x3e, 0x63, 0x7b, 0x2f, 0xbc,
  0x0d, 0x51, 0x66, 0xbe, 0xda, 0x45, 0xec, 0xbe, 0x80, 0x50, 0x0a, 0x3d,
  0x73, 0x5a, 0x71, 0x3e, 0x61, 0x9b, 0x1e, 0x3d, 0x5b, 0x3f, 0x01, 0xbe,
  0xb8, 0xe9, 0x46, 0xbe, 0x8d, 0xa8, 0x9d, 0xbe, 0xe7, 0xcb, 0x0f, 0xbf,
  0xba, 0x23, 0x3f, 0x3e, 0x8f, 0xce, 0x43, 0x3e, 0x8e, 0xd1, 0x61, 0xbe,
  0xcd, 0xad, 0xf1, 0xbe, 0x82, 0xad, 0xb7, 0xbd, 0xde, 0x16, 0xed, 0x3d,
  0x69, 0x09, 0x93, 0xbe, 0x35, 0x0a, 0x97, 0xbe, 0xc3, 0x02, 0xeb, 0xbd,
  0x35, 0x9a, 0x88, 0x3d, 0x00, 0x30, 0x36, 0x3f, 0xa3, 0x43, 0xb1, 0x3d,
  0xe4, 0xa7, 0xaa, 0x3e, 0x62, 0xbc, 0x0d, 0x3e, 0x33, 0xc7, 0xd8, 0xbe,
  0x55, 0x35, 0x74, 0x3e, 0x54, 0xfd, 0x8c, 0x3e, 0xe4, 0x82, 0xe4, 0x3c,
  0xdc, 0x96, 0x23, 0x3d, 0x6b, 0x6d, 0x02, 0xbf, 0x40, 0xfd, 0x13, 0xbc,
  0xdc, 0x77, 0x49, 0x3e, 0xde, 0xd0, 0x64, 0xbd, 0x96, 0x97, 0x18, 0x3e,
  0xa5, 0x36, 0x89, 0xbd, 0x55, 0x89, 0xf5, 0xbd, 0xd2, 0x3f, 0x66, 0x3e,
  0x02, 0xf2, 0xd7, 0x3c, 0x49, 0xff, 0x3c, 0xbd, 0xaf, 0x02, 0x5e, 0x3e,
  0xeb, 0xe7, 0x4d, 0xbe, 0x27, 0xc3, 0x58, 0x3e, 0x6f, 0x04, 0x5f, 0x3e,
  0x86, 0xb3, 0xee, 0xbd, 0x2f, 0x0c, 0x1b, 0x3e, 0x9b, 0x41, 0x7e, 0xbe,
  0x88, 0x65, 0x08, 0xbe, 0x54, 0x12, 0x35, 0x3e, 0xe1, 0xaa, 0xae, 0xbd,
  0x4d, 0x96, 0xd4, 0x3c, 0xab, 0x49, 0xbc, 0xbc, 0x89, 0xb7, 0x71, 0xbd,
  0x5e, 0x45, 0xdd, 0x3d, 0xba, 0x85, 0xd6, 0xba, 0x43, 0xf5, 0x7e, 0x3e,
  0x9b, 0x2b, 0x80, 0x3e, 0x88, 0xc9, 0xc0, 0xbe, 0x36, 0x5c, 0xcb, 0x3d,
  0x71, 0x1e, 0x84, 0x3e, 0xfa, 0xe4, 0x08, 0x3d, 0xe3, 0x01, 0x1b, 0x3e,
  0x88, 0x74, 0xb5, 0xbc, 0x3f, 0x40, 0x02, 0x3d, 0x4b, 0x79, 0x81, 0xbd,
  0x83, 0xfe, 0x0b, 0xbe, 0x03, 0xee, 0xc1, 0xbe, 0x0e, 0xe9, 0xfa, 0x3c,
  0x3a, 0xaf, 0x62, 0xbe, 0x51, 0x9c, 0x11, 0x3f, 0xfc, 0x0a, 0x80, 0x3d,
  0xf3, 0x81, 0x25, 0xbe, 0x89, 0x7e, 0xb1, 0x3e, 0xb3, 0x70, 0x2a, 0xbe,
  0x90, 0xcf, 0x20, 0xbd, 0x65, 0xda, 0x91, 0x3e, 0x4d, 0xf6, 0xb7, 0x3d,
  0xfd, 0xf1, 0xe2, 0x3d, 0xf2, 0x24, 0x26, 0xbe, 0x92, 0x0a, 0x5e, 0xbe,
  0x92, 0x1d, 0x05, 0x3e, 0x54, 0xfa, 0xec, 0xbe, 0xb4, 0x85, 0xa8, 0x39,
  0x0e, 0xe3, 0x11, 0xbf, 0xbd, 0x84, 0x34, 0xbe, 0x18, 0xd6, 0x1b, 0x3e,
  0x1b, 0x1c, 0x79, 0x3c, 0x85, 0x40, 0x67, 0xbd, 0x87, 0x98, 0x10, 0x3e,
  0x21, 0x49, 0x21, 0xbe, 0x48, 0xd5, 0x71, 0x3d, 0x6c, 0xb4, 0xa4, 0x3e,
  0x3d, 0x66, 0x2a, 0x3e, 0x9b, 0x6a, 0x0c, 0x3e, 0xa1, 0xa0, 0x31, 0xbe,
  0x99, 0xaf, 0x00, 0xbf, 0xf5, 0x87, 0x3a, 0x3d, 0xf2, 0x39, 0x8e, 0xbe,
  0xb7, 0x83, 0x51, 0xbe, 0x4d, 0x2f, 0x41, 0xbc, 0xfb, 0x5f, 0x0c, 0xbe,
  0x28, 0xc6, 0x31, 0x3e, 0x8b, 0x4f, 0x01, 0x3d, 0x6c, 0x98, 0x1c, 0xbe,
  0x41, 0x3a, 0x14, 0xbd, 0xd3, 0x11, 0xdc, 0xbc, 0xde, 0xbb, 0x35, 0xbe,
  0xce, 0x53, 0x0e, 0x3e, 0xa8, 0x81, 0x33, 0xbe, 0x26, 0x38, 0x97, 0xbd,
  0xcb, 0xb0, 0x94, 0xbe, 0x38, 0x1b, 0x41, 0xbe, 0x13, 0x50, 0x97, 0x3e,
  0x07, 0xcb, 0xa4, 0xbd, 0xa5, 0xfa, 0x10, 0x3e, 0xcc, 0x7a, 0xb2, 0xbe,
  0x07, 0x5c, 0x67, 0x3e, 0xcb, 0xc6, 0xd4, 0x3e, 0x44, 0x68, 0x46, 0x3d,
  0x1b, 0xc3, 0x1e, 0xbe, 0x0a, 0x1f, 0x7b, 0xbe, 0x36, 0xc5, 0x86, 0xbe,
  0x73, 0x42, 0xda, 0xbd, 0x8e, 0xea, 0x49, 0xbc, 0x2a, 0x48, 0x56, 0x3e,
  0x99, 0xbf, 0x4c, 0xbe, 0xa8, 0x85, 0x84, 0xbe, 0x68, 0xad, 0xec, 0xbd,
  0x2c, 0x7a, 0x2d, 0x3e, 0x88, 0x46, 0xf6, 0xbd, 0x85, 0x52, 0x15, 0x3e,
  0x9d, 0xed, 0xe1, 0x3d, 0x51, 0xe5, 0xe6, 0x3d, 0x62, 0x14, 0x7e, 0x3e,
  0x91, 0x88, 0x71, 0xbc, 0x01, 0xdd, 0x31, 0x3e, 0xe0, 0x1a, 0x23, 0x3e,
  0xd7, 0xf4, 0x89, 0xbe, 0xae, 0x90, 0xb6, 0xbd, 0xb1, 0x9c, 0x01, 0x3e,
  0x9c, 0xd4, 0xb7, 0xbd, 0xf9, 0x5b, 0xbf, 0x3d, 0xc4, 0xc6, 0xd7, 0xbe,
  0x90, 0x4b, 0xef, 0xbd, 0xe6, 0x49, 0xd6, 0x3d, 0xae, 0x0e, 0x7e, 0xbd,
  0xc7, 0x3f, 0x8c, 0x3e, 0x26, 0xbb, 0x9e, 0xbd, 0x76, 0x09, 0x12, 0xbd,
  0xf6, 0xaf, 0x2d, 0x3d, 0x86, 0x29, 0xd6, 0x3c, 0x22, 0x96, 0xf0, 0x3d,
  0x47, 0x4f, 0x15, 0xbe, 0x6d, 0x97, 0x07, 0xbd, 0x63, 0x3c, 0xae, 0xbc,
  0xca, 0xc1, 0x56, 0x3e, 0x3f, 0xbe, 0x92, 0xbc, 0x81, 0x6a, 0x3d, 0x3e,
  0x50, 0x5b, 0x7d, 0x3d, 0x0f, 0x6d, 0x4f, 0xbe, 0x08, 0xd5, 0x57, 0x3e,
  0x63, 0x8f, 0x94, 0xbc, 0x0e, 0x0e, 0x90, 0xbd, 0x5c, 0x01, 0x68, 0xbe,
  0x62, 0x17, 0x5d, 0x3c, 0xc8, 0xb7, 0x37, 0x3e, 0x4d, 0x42, 0xb0, 0x3d,
  0x64, 0x70, 0x81, 0x3e, 0x3f, 0x94, 0xcb, 0x3b, 0xf6, 0x5e, 0x9f, 0xbd,
  0x83, 0x58, 0x1b, 0xbe, 0xf5, 0x97, 0x7d, 0x3e, 0x7e, 0xab, 0x0a, 0x3e,
  0xe3, 0x39, 0x99, 0x3d, 0xfa, 0x12, 0x08, 0xbe, 0x4a, 0xf4, 0xa2, 0xbe,
  0xc5, 0x67, 0xbc, 0x3c, 0x0c, 0x21, 0x58, 0xbd, 0x1a, 0x0c, 0xe0, 0xbd,
  0x61, 0x31, 0xfb, 0xbb, 0xd5, 0x1a, 0x75, 0xbe, 0x37, 0xf3, 0x97, 0x3e,
  0x73, 0x02, 0x30, 0x3b, 0x56, 0xa9, 0x68, 0x3e, 0x7a, 0x5e, 0x2b, 0x3e,
  0x36, 0x8a, 0x69, 0xbe, 0x41, 0x0a, 0xb5, 0x3d, 0xde, 0x99, 0xe2, 0x3d,
  0x91, 0x2d, 0x22, 0xbe, 0x2d, 0xe8, 0x09, 0x3d, 0xf4, 0x08, 0x0e, 0xbd,
  0x2b, 0x29, 0x8a, 0xbe, 0x09, 0x3d, 0xc4, 0xbc, 0x4f, 0xda, 0xdd, 0xbd,
  0xc2, 0xeb, 0x70, 0xbd, 0x66, 0xf3, 0xb8, 0xbe, 0xd8, 0x63, 0x3e, 0x3e,
  0x7e, 0xbf, 0xbf, 0x3e, 0xae, 0xda, 0x27, 0x3d, 0xbe, 0xd8, 0x4f, 0x3e,
  0xb8, 0x83, 0xa1, 0xbd, 0xf4, 0x3b, 0x16, 0xbe, 0xd5, 0xe0, 0xd9, 0x3d,
  0x05, 0xea, 0x25, 0x3e, 0xaa, 0x77, 0xfc, 0x3d, 0xfc, 0x6b, 0x87, 0xbd,
  0xae, 0xcb, 0xcf, 0xbd, 0x5c, 0xeb, 0xcd, 0xbe, 0x12, 0x54, 0x82, 0x3e,
  0xb1, 0xce, 0xc5, 0xbd, 0x62, 0xec, 0x0a, 0x3e, 0x07, 0xa4, 0x29, 0xbd,
  0xe8, 0x20, 0x02, 0xbd, 0x5e, 0x28, 0xe2, 0x3e, 0x69, 0x70, 0x10, 0xbd,
  0xe2, 0xef, 0x50, 0xbc, 0xa9, 0x9a, 0xc9, 0xbd, 0xc4, 0xe6, 0x51, 0xbc,
  0x74, 0x5f, 0x06, 0x3e, 0x5d, 0x1e, 0x17, 0x3d, 0x25, 0x5e, 0x0d, 0xbe,
  0xa6, 0xc2, 0x9a, 0xbd, 0x06, 0x83, 0xb2, 0xbd, 0xf9, 0xc0, 0xde, 0xbd,
  0x1c, 0x2e, 0x37, 0x3d, 0xf7, 0x09, 0xa8, 0xbd, 0x3f, 0x6d, 0x29, 0xbe,
  0x65, 0x82, 0x96, 0xbd, 0x71, 0xf0, 0x44, 0xbe, 0x9d, 0x47, 0x0e, 0xbe,
  0x2b, 0xd9, 0x4c, 0xbe, 0xe0, 0x5b, 0x0b, 0xbe, 0x81, 0x34, 0x0b, 0x3e,
  0x0a, 0x1b, 0xbf, 0x3d, 0x22, 0x93, 0x97, 0x3d, 0x62, 0x70, 0x93, 0xbc,
  0xd1, 0xe8, 0x4d, 0x3e, 0x5f, 0x22, 0xc7, 0xbd, 0xe9, 0x07, 0x6e, 0xbd,
  0xfc, 0x3a, 0x49, 0x3d, 0xe9, 0x80, 0x04, 0x3d, 0x18, 0x9a, 0x5d, 0xbe,
  0x34, 0x0c, 0xd0, 0xbd, 0xd3, 0xb0, 0x87, 0x3e, 0x9e, 0x93, 0x0d, 0x3c,
  0x66, 0x88, 0x13, 0xbe, 0x39, 0xde, 0x35, 0xbe, 0x4f, 0xc4, 0x10, 0x3d,
  0x93, 0x90, 0x00, 0xbd, 0xc3, 0x83, 0xc9, 0xbd, 0x69, 0x4e, 0xb0, 0xbd,
  0x16, 0xca, 0xb0, 0x3e, 0x21, 0xa3, 0x0e, 0xbe, 0x6d, 0x1a, 0x93, 0x3d,
  0x7b, 0x4e, 0xce, 0xbd, 0x94, 0x3d, 0x9f, 0xbd, 0xb5, 0xbe, 0x81, 0xbd,
  0x37, 0x4b, 0xfb, 0xbd, 0xbd, 0x58, 0x41, 0xbe, 0xba, 0x7f, 0x1a, 0x3e,
  0x7a, 0x20, 0x57, 0x3e, 0x58, 0x85, 0xab, 0xbd, 0xf4, 0x89, 0xc4, 0xbd,
  0x91, 0x2d, 0x01, 0xbe, 0x6e, 0x29, 0x8a, 0x3e, 0x85, 0xc5, 0x15, 0x3e,
  0xe2, 0xc1, 0xf6, 0x3c, 0xb9, 0x9f, 0xd4, 0x3e, 0xdf, 0xd4, 0x66, 0x3d,
  0x6e, 0x1f, 0x89, 0xbd, 0x02, 0x68, 0x0d, 0x3e, 0x85, 0x66, 0xf0, 0xbd,
  0xa4, 0xda, 0xaf, 0x3c, 0x5f, 0x25, 0x32, 0x3e, 0x5e, 0x53, 0x1b, 0xbe,
  0xa0, 0xbe, 0x95, 0x3e, 0x61, 0x0c, 0x08, 0xbe, 0xd1, 0x4e, 0x13, 0xbe,
  0x71, 0x04, 0x9a, 0xbc, 0x85, 0xc6, 0x25, 0x3e, 0xfe, 0x01, 0x28, 0x3e,
  0xa5, 0xe7, 0xc0, 0xbd, 0x34, 0x6e, 0x75, 0xbd, 0x8b, 0xb9, 0x0e, 0x3e,
  0xb8, 0x82, 0xc5, 0xbd, 0x55, 0xe7, 0x71, 0x3e, 0x7b, 0x57, 0x14, 0x3e,
  0xe4, 0x45, 0xc0, 0xbd, 0xdd, 0x08, 0x13, 0xbe, 0xe7, 0x70, 0x1b, 0x3e,
  0x0e, 0x92, 0x9d, 0xbd, 0x56, 0xfb, 0x92, 0x3e, 0x48, 0xa6, 0x0a, 0xbe,
  0xb0, 0xca, 0x1c, 0xbd, 0x40, 0x1d, 0x99, 0xbe, 0xb9, 0x34, 0xa1, 0x3d,
  0x1c, 0x6d, 0xe6, 0x3d, 0xd0, 0x03, 0x25, 0xbd, 0x87, 0xd6, 0x50, 0x3e,
  0x2f, 0x9d, 0x88, 0x3d, 0x97, 0x2a, 0x2e, 0xbd, 0x79, 0xb1, 0x1e, 0xbe,
  0x91, 0xc4, 0x54, 0x3e, 0x24, 0x12, 0x0b, 0xbe, 0x25, 0x9e, 0x34, 0x3d,
  0x21, 0x2d, 0x08, 0xbe, 0x39, 0xe1, 0xc0, 0xbc, 0x07, 0x21, 0x34, 0x3d,
  0x6a, 0xe6, 0x65, 0xbe, 0x4f, 0x3c, 0x5f, 0x3e, 0x98, 0x10, 0x81, 0xbe,
  0x81, 0x81, 0xba, 0x3d, 0xb3, 0x6f, 0xac, 0x3d, 0xcb, 0xf3, 0x95, 0x3d,
  0x6f, 0x9f, 0x02, 0x3e, 0x13, 0x0c, 0xb0, 0x3e, 0x7c, 0x35, 0xaa, 0x3d,
  0x36, 0x85, 0xbd, 0xbd, 0x14, 0xb9, 0x96, 0xbd, 0x65, 0xe3, 0xca, 0xbd,
  0xfe, 0x09, 0x1b, 0xbe, 0x4d, 0x40, 0x12, 0x3d, 0xc9, 0xab, 0xf5, 0xbd,
  0x02, 0x31, 0x12, 0xbc, 0xa8, 0x21, 0xb9, 0xbb, 0xf3, 0x6f, 0x94, 0x3d,
  0x6a, 0xe9, 0xa5, 0xbe, 0x58, 0xfb, 0xba, 0x3b, 0x65, 0x7d, 0x5e, 0xbd,
  0x4f, 0xf6, 0x17, 0xbe, 0xbf, 0xbf, 0x03, 0xbe, 0x92, 0xdf, 0x9e, 0x3d,
  0x22, 0x3a, 0x71, 0xbe, 0x65, 0x46, 0x80, 0xbd, 0x1b, 0x13, 0x36, 0xbd,
  0xca, 0x45, 0x32, 0xbe, 0x58, 0x89, 0x12, 0xbe, 0xe2, 0x2a, 0x70, 0xbc,
  0x94, 0x0d, 0x3e, 0xbe, 0xe9, 0x95, 0xfc, 0x3d, 0xb1, 0x04, 0x94, 0xbd,
  0x16, 0x0d, 0x4f, 0xbe, 0x01, 0x92, 0x87, 0x3d, 0xef, 0xdf, 0xcf, 0xbe,
  0xb2, 0xfc, 0x75, 0xbe, 0x47, 0x48, 0x2d, 0x3e, 0xb2, 0x1b, 0xa0, 0xbe,
  0x81, 0x80, 0x42, 0xbe, 0x5d, 0xe0, 0xd5, 0x3d, 0x99, 0x0f, 0x81, 0xbd,
  0x28, 0xfb, 0xc6, 0x3e, 0x38, 0xf9, 0x05, 0x3d, 0x09, 0x85, 0x55, 0xbe,
  0x36, 0x81, 0x4f, 0x3e, 0x9d, 0xc7, 0xbb, 0xbc, 0x2d, 0x13, 0xb3, 0x3d,
  0x28, 0x39, 0xef, 0xbd, 0x46, 0xfb, 0xda, 0xbd, 0x32, 0x73, 0x22, 0xbd,
  0x62, 0x59, 0x02, 0x3d, 0x98, 0x45, 0x06, 0xbd, 0x54, 0x80, 0xd0, 0x3d,
  0x55, 0x2b, 0x39, 0xbd, 0xfe, 0x17, 0x71, 0xbe, 0x3c, 0x39, 0xa0, 0xbd,
  0x50, 0xd9, 0x58, 0xbe, 0x4a, 0x7c, 0x37, 0x3e, 0x70, 0xd0, 0x12, 0x3e,
  0x4a, 0xb3, 0x85, 0xbe, 0xbc, 0x02, 0x04, 0x3f, 0x3d, 0xe3, 0x80, 0xbe,
  0xef, 0x77, 0xbd, 0x3d, 0xa5, 0xb0, 0x4a, 0x3e, 0xbf, 0x8a, 0x30, 0xbd,
  0xf4, 0xeb, 0x2d, 0xbd, 0xe0, 0x60, 0x1b, 0x3d, 0x63, 0x53, 0xb6, 0xbe,
  0x90, 0x29, 0x13, 0x3d, 0x41, 0x50, 0x17, 0x3c, 0x71, 0x57, 0x55, 0xbc,
  0xab, 0x95, 0x2c, 0xbd, 0x25, 0xc7, 0x49, 0xbd, 0xf0, 0x20, 0xa0, 0x3e,
  0xee, 0xde, 0x93, 0x3e, 0x6e, 0xb8, 0x99, 0xbe, 0xb7, 0x3b, 0xc7, 0x3e,
  0x91, 0x8b, 0xa6, 0xbe, 0x50, 0x17, 0x98, 0x3e, 0x24, 0x75, 0x23, 0xbd,
  0x42, 0x1b, 0x41, 0x3d, 0xe0, 0x71, 0xb8, 0xbc, 0xd0, 0xd2, 0xe2, 0x3d,
  0x2f, 0x1a, 0x4f, 0xbe, 0x17, 0x1b, 0x8e, 0x3e, 0x39, 0xf5, 0xaf, 0x3d,
  0x26, 0xf3, 0x5d, 0xbe, 0x95, 0x74, 0x4f, 0xbd, 0x73, 0xf4, 0x26, 0xbe,
  0x1d, 0xa4, 0x97, 0x3e, 0x4e, 0xe4, 0x8a, 0x3e, 0xad, 0xdb, 0x0a, 0xbe,
  0x06, 0xbd, 0x28, 0x3e, 0xc4, 0x57, 0x79, 0xbe, 0x83, 0xcc, 0x42, 0x3e,
  0x4c, 0x1c, 0x8f, 0x3d, 0xcb, 0x1d, 0xfc, 0x3d, 0x44, 0x37, 0xce, 0xba,
  0xea, 0xc6, 0xa9, 0xbe, 0xa8, 0x7c, 0xac, 0xbe, 0x47, 0x25, 0x7d, 0x3e,
  0xb6, 0x6b, 0x5d, 0xbe, 0x9b, 0xfb, 0xa2, 0xbe, 0x7e, 0x73, 0x83, 0xbd,
  0xc8, 0xeb, 0x16, 0xbe, 0x72, 0x81, 0xb6, 0x3e, 0xe9, 0x8d, 0x64, 0x3e,
  0x55, 0x1f, 0x12, 0xbe, 0x81, 0xe4, 0x04, 0xbd, 0x37, 0xbd, 0x66, 0xbe,
  0xc5, 0xf0, 0x96, 0x3e, 0xe7, 0x19, 0x75, 0x3e, 0x3e, 0xcf, 0xf6, 0x3c,
  0x6f, 0x1b, 0x3a, 0x3c, 0xb8, 0x09, 0x83, 0xbe, 0x56, 0xba, 0x9a, 0xbe,
  0xa6, 0x91, 0x8e, 0x3e, 0xe4, 0x65, 0xaf, 0xbe, 0x82, 0x17, 0xaf, 0xbe,
  0x82, 0xed, 0x04, 0xbe, 0x0b, 0x5c, 0x57, 0xbe, 0x7d, 0xac, 0x79, 0x3e,
  0x93, 0x5d, 0x4d, 0x3e, 0xa6, 0x68, 0x1a, 0xbe, 0x34, 0x59, 0x22, 0x3e,
  0x01, 0x2d, 0xdb, 0xbe, 0x0c, 0xc0, 0xab, 0xb9, 0x9c, 0x94, 0x8c, 0xbd,
  0xeb, 0xc2, 0x9d, 0xbd, 0x46, 0xe2, 0x80, 0xbd, 0x7a, 0x97, 0x29, 0xbe,
  0xcd, 0x7e, 0x46, 0xbc, 0x8c, 0x9b, 0x81, 0xbd, 0xe9, 0x08, 0x1b, 0xbe,
  0xd3, 0xf3, 0xa3, 0xbd, 0xa3, 0x71, 0xd7, 0x3d, 0x60, 0xec, 0xca, 0xbc,
  0x70, 0x0f, 0xa8, 0x3e, 0x54, 0xae, 0xbc, 0x3d, 0xf7, 0x12, 0x07, 0xbe,
  0x55, 0x54, 0x05, 0x3c, 0xa1, 0xe9, 0xe5, 0x3d, 0x23, 0x47, 0xcc, 0xbd,
  0xdc, 0x6e, 0x0e, 0x3d, 0x59, 0xea, 0xf6, 0x3d, 0xb4, 0xeb, 0x15, 0xbe,
  0xff, 0x6d, 0x41, 0xbe, 0x76, 0xb5, 0x09, 0xbe, 0x25, 0x87, 0x71, 0xbd,
  0x55, 0x4f, 0xcf, 0xbc, 0x11, 0x1d, 0x7d, 0xbe, 0x81, 0x17, 0x38, 0xbd,
  0xaa, 0xa0, 0x76, 0xbe, 0xbf, 0xdc, 0xd1, 0xbd, 0x52, 0x70, 0x0d, 0xbe,
  0xe7, 0xb6, 0x88, 0xbe, 0x4f, 0xd9, 0xeb, 0xbd, 0xb4, 0xf7, 0x53, 0xbd,
  0x3d, 0xeb, 0x08, 0xbd, 0x51, 0x65, 0xe9, 0xbd, 0xbc, 0xbc, 0x3d, 0x3e,
  0xd7, 0xe4, 0xe9, 0xbd, 0xdd, 0xee, 0xe9, 0xbd, 0x05, 0xc9, 0x98, 0xbd,
  0x87, 0x4b, 0x3d, 0xbd, 0x18, 0xdb, 0x5f, 0xbd, 0x87, 0xe6, 0x72, 0x3e,
  0x32, 0xd7, 0xb0, 0x3d, 0xf9, 0xa2, 0x28, 0xbd, 0xc6, 0xaa, 0x57, 0x3d,
  0x7f, 0x0b, 0xb7, 0x3d, 0x0c, 0x0f, 0xa1, 0x3e, 0x2f, 0x7f, 0x48, 0xbe,
  0x87, 0x4d, 0x28, 0xbe, 0x6b, 0xce, 0x22, 0x3e, 0x96, 0x71, 0x88, 0x3e,
  0xe6, 0x8d, 0x35, 0xbd, 0xd6, 0xbe, 0x90, 0x3b, 0x08, 0xc2, 0x45, 0x3e,
  0x15, 0x88, 0x1e, 0xbd, 0x90, 0x39, 0xfa, 0x3d, 0x23, 0xac, 0x77, 0xbc,
  0x05, 0x46, 0x95, 0xbd, 0xf6, 0x73, 0x16, 0xbe, 0x58, 0xe7, 0x60, 0xbe,
  0x1c, 0xa7, 0x12, 0x3e, 0xdd, 0xee, 0x73, 0x3d, 0xc9, 0xc3, 0x2a, 0x3d,
  0x41, 0x8b, 0x70, 0xbe, 0x3a, 0x58, 0x24, 0x3e, 0x41, 0x2f, 0xef, 0x3d,
  0x26, 0x2f, 0x4f, 0x3e, 0xe0, 0xdf, 0xc9, 0x3c, 0x3a, 0xdb, 0xd5, 0xbc,
  0xae, 0x97, 0x10, 0x3e, 0xa2, 0x14, 0xc9, 0x3d, 0x2f, 0x5d, 0x52, 0xbd,
  0x1a, 0x22, 0x73, 0x3e, 0xd5, 0x86, 0xf6, 0x3d, 0xe0, 0xc6, 0xaa, 0xbd,
  0xc2, 0xca, 0xab, 0xbd, 0x55, 0x29, 0x05, 0xbd, 0x15, 0x0f, 0xb6, 0x3d,
  0xda, 0x34, 0x0f, 0x3e, 0xe5, 0xff, 0x18, 0x3e, 0x53, 0xeb, 0x52, 0xbe,
  0x34, 0xd3, 0x1f, 0x3e, 0x4b, 0x3c, 0xde, 0xbd, 0xe6, 0x20, 0x64, 0xbe,
  0xfc, 0xed, 0x80, 0xbe, 0x47, 0xc4, 0xe2, 0x3d, 0x76, 0x8a, 0x42, 0xbe,
  0x99, 0x9b, 0xb7, 0xbd, 0xff, 0xb1, 0x9c, 0x3c, 0x16, 0xaa, 0x2f, 0x3d,
  0x96, 0x36, 0x08, 0xbe, 0xbf, 0x2c, 0x89, 0x3d, 0x2c, 0x90, 0x10, 0xbd,
  0x77, 0xd2, 0x68, 0xbe, 0x23, 0x3f, 0x89, 0x3e, 0x58, 0x8d, 0x4c, 0xbe,
  0x5b, 0x94, 0xb6, 0x3b, 0x1d, 0x97, 0x9e, 0xbd, 0x4d, 0x8d, 0xd3, 0x3d,
  0xd1, 0x4a, 0xa3, 0x3d, 0x6d, 0x20, 0xd7, 0xbc, 0x67, 0x74, 0xd8, 0x3d,
  0x06, 0xa6, 0x7b, 0xbe, 0x8b, 0x4f, 0xae, 0xbd, 0x65, 0x7d, 0x32, 0xbe,
  0x57, 0x0c, 0xa3, 0xbd, 0xb2, 0x0c, 0x32, 0x3d, 0xcd, 0x01, 0xa0, 0x3d,
  0x86, 0x93, 0xaf, 0x3d, 0x96, 0x6b, 0xc0, 0xbd, 0x1e, 0x58, 0xfd, 0x3c,
  0x95, 0x6c, 0xf6, 0x3d, 0x28, 0x13, 0xda, 0x3b, 0xde, 0x1b, 0x5e, 0xbc,
  0x08, 0x4f, 0x21, 0x3d, 0x8a, 0x9b, 0x5a, 0xbc, 0x4e, 0xfd, 0x37, 0xbe,
  0x02, 0x36, 0x90, 0xbc, 0x25, 0x94, 0x3b, 0xbe, 0xdc, 0x30, 0xf6, 0xbd,
  0x7f, 0x50, 0xe7, 0xbc, 0x54, 0xb2, 0x0a, 0x3d, 0x75, 0xd5, 0x59, 0xbe,
  0x03, 0x47, 0xf5, 0xbd, 0xf1, 0x8e, 0x9f, 0x3d, 0x87, 0x4e, 0xf6, 0xbd,
  0x35, 0x06, 0x9f, 0x3e, 0x73, 0xc0, 0x4e, 0x3e, 0x0c, 0xf5, 0x88, 0x3e,
  0x78, 0x80, 0xa2, 0xbb, 0x71, 0x34, 0xb3, 0xbd, 0x6e, 0x93, 0x2b, 0x3e,
  0x8c, 0xf6, 0x1d, 0xbe, 0xb0, 0x91, 0x91, 0x3e, 0x0b, 0x88, 0x1e, 0x3e,
  0x59, 0x6d, 0xef, 0xbd, 0x9a, 0x15, 0xb1, 0x3e, 0x4c, 0xab, 0x60, 0x3d,
  0x10, 0xd9, 0xdb, 0x3d, 0x84, 0x17, 0xf3, 0x3d, 0x7c, 0x60, 0x3d, 0xbd,
  0x32, 0xc3, 0xb7, 0x3d, 0xa6, 0x98, 0x8c, 0xbc, 0xc6, 0xdc, 0xb1, 0xbe,
  0x22, 0xed, 0xdb, 0xba, 0xc9, 0x00, 0xb8, 0x3d, 0x4a, 0x44, 0x29, 0x3e,
  0xb8, 0x57, 0xf1, 0x3d, 0xed, 0x7f, 0x3f, 0xbd, 0x7c, 0xa6, 0x4f, 0xbd,
  0x67, 0x0c, 0xa6, 0xbe, 0x49, 0xbf, 0x86, 0xbe, 0x89, 0x26, 0x81, 0xbd,
  0x8c, 0x2f, 0x4f, 0xbe, 0x85, 0xbe, 0x28, 0x3e, 0xb8, 0x8e, 0x14, 0xbe,
  0x73, 0xff, 0x09, 0xbe, 0x2f, 0xe5, 0x62, 0xbe, 0x58, 0xc0, 0x06, 0xbe,
  0x80, 0xf3, 0x12, 0xbf, 0x67, 0x12, 0x5e, 0xbe, 0x38, 0x4d, 0xf2, 0xbd,
  0x01, 0xcd, 0x57, 0xbd, 0x0d, 0xbe, 0xad, 0x3d, 0x71, 0xf0, 0x9e, 0xbd,
  0x39, 0x20, 0xe4, 0xbd, 0xc3, 0xa0, 0x78, 0xbe, 0xc7, 0x5b, 0xd3, 0xbd,
  0x3d, 0x3e, 0x89, 0xbd, 0xf0, 0xcf, 0x82, 0xbe, 0xbf, 0x35, 0x24, 0x3e,
  0x9b, 0x7c, 0x18, 0xbe, 0x88, 0x46, 0x8e, 0xbe, 0xf1, 0x54, 0xa9, 0xbe,
  0x84, 0x47, 0x77, 0x3e, 0x38, 0x1c, 0x2b, 0xbf, 0xee, 0x72, 0x40, 0x3d,
  0x8b, 0x51, 0xf3, 0xbe, 0xb7, 0x5f, 0xa1, 0x3c, 0x0b, 0xe3, 0x50, 0xbe,
  0xd8, 0x6d, 0x00, 0x39, 0x3f, 0x0c, 0x02, 0x3d, 0x54, 0x0c, 0xb6, 0xbd,
  0x43, 0xe3, 0xb9, 0xbe, 0x19, 0x81, 0x7d, 0xbe, 0x14, 0xf2, 0x5f, 0xbe,
  0xb8, 0xae, 0x99, 0x3c, 0x6c, 0x83, 0x6c, 0xbd, 0x34, 0x6d, 0x2d, 0xbe,
  0x3f, 0xb4, 0xc5, 0xbe, 0x53, 0x0b, 0xa4, 0xbd, 0x16, 0x9f, 0x78, 0x3d,
  0x97, 0x94, 0x81, 0x3c, 0xd1, 0x39, 0xff, 0xbd, 0x64, 0x55, 0x02, 0x3d,
  0xf2, 0x2f, 0x09, 0x3d, 0x48, 0x80, 0x71, 0xbd, 0x4f, 0x48, 0x1c, 0xbe,
  0x08, 0x60, 0x84, 0xbd, 0xff, 0x36, 0xb5, 0xbd, 0x36, 0xc9, 0x30, 0x3d,
  0x8f, 0x33, 0xa1, 0xbd, 0x80, 0x2c, 0x89, 0x3d, 0x86, 0x33, 0x97, 0xbc,
  0x61, 0xc6, 0xc5, 0x3c, 0xc5, 0x13, 0xab, 0xbd, 0x2e, 0x21, 0x98, 0xba,
  0xee, 0x9d, 0x4c, 0x3e, 0x06, 0x60, 0xb4, 0x3e, 0x67, 0x0f, 0xdc, 0xbd,
  0x7d, 0xe9, 0x0b, 0xbd, 0xa1, 0xb8, 0x9f, 0xbd, 0x30, 0x18, 0x46, 0x3d,
  0x7b, 0xc3, 0x91, 0xbd, 0x36, 0xf7, 0x6c, 0x3e, 0xac, 0xb3, 0x50, 0xbe,
  0x7a, 0x3f, 0x0e, 0x3e, 0x7a, 0xe2, 0x16, 0x3e, 0x94, 0x9c, 0x3c, 0xbe,
  0x51, 0x0b, 0x13, 0x3e, 0x74, 0x3e, 0x3f, 0x3e, 0x56, 0x96, 0xdd, 0xba,
  0x5b, 0x2d, 0xc0, 0xbc, 0x00, 0x32, 0x71, 0x3d, 0x58, 0xf5, 0x30, 0x3e,
  0x5e, 0x5b, 0x78, 0xbd, 0x7f, 0x8d, 0xa5, 0xbc, 0x37, 0xbb, 0x69, 0xbc,
  0x88, 0x74, 0x6a, 0xbd, 0x8f, 0xfc, 0x56, 0x3e, 0xdd, 0xcb, 0x0b, 0xbe,
  0xb7, 0xcf, 0x2a, 0xbd, 0x5e, 0x2d, 0x51, 0xbe, 0x18, 0x01, 0x33, 0xbe,
  0x1d, 0x69, 0xba, 0x3d, 0x09, 0xd6, 0x03, 0xbe, 0x86, 0xed, 0x8b, 0x3c,
  0x23, 0xff, 0x8e, 0xbd, 0x84, 0x83, 0x66, 0xbd, 0xf3, 0xa4, 0xee, 0xbd,
  0xdf, 0x23, 0x86, 0xbe, 0xa3, 0x97, 0x01, 0x3e, 0xf1, 0xae, 0x24, 0xbe,
  0x35, 0x8c, 0xfa, 0xbd, 0xd4, 0x7c, 0x28, 0xbe, 0x6e, 0xc2, 0x77, 0xbe,
  0x39, 0x5f, 0x83, 0xbe, 0xb7, 0x78, 0x43, 0x3e, 0x22, 0x8b, 0x41, 0xbd,
  0x18, 0xcc, 0x0b, 0xbe, 0xc9, 0x52, 0x84, 0xbd, 0x4c, 0x75, 0x47, 0xbe,
  0x4e, 0x55, 0x92, 0x3e, 0x48, 0x50, 0xac, 0xbd, 0xa8, 0x54, 0x89, 0xbe,
  0x01, 0x67, 0xc9, 0x3e, 0xf7, 0x04, 0x5d, 0xbe, 0x91, 0x39, 0xdf, 0xbc,
  0x19, 0x1f, 0x1c, 0xbe, 0x05, 0xd1, 0x33, 0xbe, 0x60, 0xbd, 0x19, 0xbe,
  0x85, 0xa2, 0xb1, 0xbe, 0x8c, 0xbf, 0xf3, 0xbc, 0x54, 0xa4, 0xb1, 0x3e,
  0xbe, 0x7f, 0x2c, 0xbe, 0x24, 0x24, 0x9d, 0xbe, 0xe3, 0x8a, 0xe7, 0xbc,
  0x97, 0x8d, 0x5e, 0xbe, 0x3e, 0xf0, 0x02, 0x3d, 0xd9, 0x38, 0x8d, 0x3d,
  0x49, 0x8d, 0x9e, 0xbe, 0x8a, 0xb9, 0xd9, 0x3e, 0xeb, 0x8b, 0x30, 0xbe,
  0xa1, 0x85, 0xd1, 0x3d, 0x01, 0xb3, 0x39, 0x3e, 0xca, 0xd8, 0x8d, 0x3d,
  0xea, 0x4b, 0x29, 0xbe, 0xad, 0xe0, 0x98, 0xbd, 0x4c, 0x14, 0x93, 0x3d,
  0x2f, 0x1e, 0xf3, 0x3e, 0x18, 0x3b, 0xef, 0xbd, 0x75, 0x3c, 0x36, 0xbe,
  0xba, 0x10, 0xf3, 0xbd, 0xef, 0x23, 0xdf, 0xbd, 0xb3, 0x7a, 0xb0, 0xbc,
  0x9b, 0xa5, 0x15, 0x3e, 0x6a, 0xd8, 0xb1, 0xbe, 0x45, 0x2d, 0x82, 0x3e,
  0x9c, 0x1e, 0x47, 0x3c, 0x48, 0xaf, 0xa8, 0x3e, 0x7c, 0x08, 0x9a, 0xbd,
  0xce, 0x1b, 0xb9, 0xbb, 0xb6, 0x66, 0x97, 0xbd, 0x2b, 0x30, 0x6d, 0xbd,
  0x14, 0x8f, 0xb3, 0x3d, 0xb0, 0x5d, 0x45, 0x3e, 0xaf, 0x0c, 0xe0, 0x3d,
  0x26, 0x09, 0x01, 0xbe, 0x16, 0x85, 0x96, 0xbd, 0xa5, 0x48, 0xe3, 0xbd,
  0x8b, 0x8d, 0xbc, 0xbd, 0x29, 0x5b, 0xd1, 0x3d, 0xcb, 0x16, 0x69, 0xbe,
  0x53, 0x8d, 0x2b, 0x3e, 0x40, 0x1c, 0xd8, 0xbe, 0x13, 0xd0, 0x85, 0x3e,
  0x2a, 0x5b, 0xa6, 0xbe, 0xe5, 0xb0, 0x52, 0xbe, 0x69, 0x00, 0x15, 0xbe,
  0x1f, 0x1d, 0x07, 0xbf, 0xef, 0xf2, 0x82, 0xbe, 0xc8, 0x34, 0xc6, 0x3e,
  0x68, 0xd9, 0x5b, 0xbe, 0x23, 0xea, 0xfb, 0xbe, 0x18, 0xac, 0xb3, 0xbb,
  0x37, 0x16, 0x52, 0xbe, 0xda, 0x0d, 0x73, 0x3e, 0x02, 0x24, 0x2a, 0x3e,
  0x4b, 0xab, 0x25, 0xbe, 0x93, 0xb8, 0x41, 0xbc, 0x54, 0xa5, 0x71, 0xbe,
  0x6d, 0x6e, 0x50, 0x3e, 0x10, 0x23, 0xd4, 0x3d, 0xc3, 0x21, 0x31, 0xbe,
  0xca, 0x2c, 0xfd, 0xbd, 0xfc, 0xc8, 0x18, 0xbf, 0x6b, 0x84, 0x7c, 0xbe,
  0x1a, 0xcf, 0x9e, 0x3e, 0xf6, 0x11, 0xdd, 0xbe, 0x7e, 0xf8, 0xd4, 0xbe,
  0xda, 0x0a, 0x3a, 0xbe, 0xf2, 0x6b, 0x80, 0xbd, 0xa9, 0x51, 0xea, 0x3d,
  0x93, 0x20, 0x3c, 0x3d, 0xa8, 0x96, 0x17, 0xbe, 0x7d, 0x01, 0xbf, 0xbc,
  0xef, 0xd8, 0xfe, 0xbe, 0xf4, 0xee, 0xb7, 0xbc, 0xa2, 0xb9, 0xbe, 0x3d,
  0xd3, 0x8c, 0x20, 0x3e, 0xb0, 0x7e, 0x2d, 0xbe, 0x84, 0x65, 0x41, 0xbe,
  0x4e, 0x29, 0xda, 0xbd, 0x8f, 0x47, 0xdd, 0xbd, 0xbd, 0xc5, 0x6b, 0xbe,
  0x53, 0x82, 0x4f, 0xbd, 0xa0, 0x57, 0x10, 0xbe, 0xcd, 0x23, 0xd3, 0xbd,
  0x20, 0x1b, 0x82, 0x3e, 0xaa, 0x4b, 0x13, 0x3e, 0xfa, 0xa5, 0x71, 0xbe,
  0x54, 0x5a, 0x18, 0xbe, 0xc4, 0x6e, 0x84, 0x3d, 0x7c, 0x75, 0x18, 0xbf,
  0xcf, 0xfc, 0xcc, 0xbd, 0x90, 0x45, 0x4f, 0x3e, 0x13, 0x81, 0xf8, 0xbd,
  0x9d, 0xf2, 0x65, 0xbe, 0x89, 0x00, 0x43, 0xbd, 0x80, 0x09, 0x5d, 0xbe,
  0x2c, 0xd0, 0x9c, 0xbc, 0xe8, 0x68, 0x6f, 0xbe, 0x85, 0x5c, 0xb3, 0xbd,
  0x05, 0x27, 0xed, 0xbe, 0xb0, 0x25, 0xce, 0xbe, 0x29, 0x8f, 0x57, 0xbe,
  0xb2, 0xe4, 0x67, 0x3b, 0xd3, 0xe7, 0xe8, 0xbd, 0xfc, 0x71, 0xbc, 0x3d,
  0x46, 0x17, 0x71, 0xbe, 0x11, 0x4e, 0xa6, 0xbe, 0x41, 0x56, 0xf2, 0x3d,
  0x1c, 0x49, 0x86, 0xbd, 0x3c, 0x69, 0xc9, 0x3c, 0xb3, 0xb2, 0xab, 0xbe,
  0x70, 0x09, 0xac, 0xbe, 0x62, 0x12, 0x94, 0xbd, 0x61, 0x0f, 0xfd, 0xbd,
  0xc1, 0xf7, 0x8b, 0xbd, 0x98, 0xf0, 0x83, 0xbe, 0x49, 0xfe, 0x44, 0xbe,
  0x00, 0xb4, 0xfc, 0xbc, 0x07, 0xbe, 0x94, 0xbe, 0x11, 0x51, 0x02, 0xbe,
  0xf7, 0x84, 0x0f, 0xbe, 0xe5, 0xd9, 0x8b, 0xbc, 0x25, 0x4e, 0xab, 0xbc,
  0x3c, 0x21, 0x69, 0x3e, 0x30, 0xfb, 0xa3, 0xbd, 0x4f, 0x87, 0x04, 0x3e,
  0xb1, 0xac, 0x9c, 0xbe, 0x71, 0x1d, 0x81, 0x3e, 0x41, 0x7d, 0xe1, 0xbc,
  0x13, 0xad, 0x88, 0xbe, 0xe0, 0xb5, 0x15, 0x3e, 0xe1, 0x93, 0x83, 0xbe,
  0x07, 0xc5, 0x16, 0x3c, 0x8a, 0xc9, 0xa9, 0xbe, 0x50, 0xec, 0x97, 0xbc,
  0x22, 0xaa, 0x22, 0xbd, 0xf7, 0x40, 0xe6, 0xbd, 0xc6, 0x8b, 0xf3, 0xbd,
  0x39, 0x9a, 0x83, 0xbd, 0x7f, 0x99, 0x6f, 0xbc, 0x9d, 0x88, 0x69, 0xbd,
  0x15, 0xbc, 0x17, 0x3c, 0x85, 0x7b, 0x26, 0xbe, 0x80, 0x25, 0x6b, 0xbc,
  0x8f, 0xea, 0x4a, 0xbe, 0xbe, 0xfd, 0x05, 0x3d, 0xab, 0x06, 0x2d, 0xbe,
  0x76, 0x80, 0x9a, 0xbe, 0xe0, 0x41, 0xb8, 0x3c, 0x26, 0xa6, 0x09, 0xbe,
  0x60, 0xd1, 0xc9, 0xbb, 0x7b, 0xf7, 0x84, 0x3d, 0xa5, 0xcf, 0xf4, 0xbc,
  0x91, 0xc5, 0x1e, 0x3d, 0x2e, 0x1d, 0xe3, 0xbe, 0x99, 0x52, 0x5f, 0x3e,
  0xb7, 0x37, 0x71, 0xbd, 0xc4, 0x91, 0x7a, 0xbe, 0x45, 0x26, 0x9c, 0xbc,
  0xf9, 0x8a, 0xa2, 0xbd, 0x1e, 0xf7, 0x0b, 0xbc, 0x1a, 0x47, 0x52, 0xbd,
  0x1d, 0x0a, 0x07, 0x3e, 0x34, 0x6f, 0x15, 0xbe, 0xa9, 0xc8, 0xb7, 0x3e,
  0x87, 0x22, 0xe2, 0xbd, 0x05, 0x63, 0x27, 0x3d, 0x35, 0x69, 0xa0, 0xbd,
  0x37, 0x05, 0xf5, 0xbd, 0x38, 0x6b, 0x42, 0x3e, 0x07, 0x69, 0x99, 0xbe,
  0xcb, 0x83, 0x0a, 0xbe, 0x2c, 0x7a, 0x8d, 0xbd, 0x33, 0x43, 0x02, 0xbf,
  0xe7, 0x8d, 0xb1, 0xbe, 0xf1, 0xcc, 0x10, 0x3f, 0x58, 0x8f, 0x2f, 0xbe,
  0x5b, 0xea, 0x98, 0xbe, 0x81, 0x90, 0x14, 0xbe, 0xad, 0x15, 0xae, 0xbd,
  0xe0, 0xc4, 0x5a, 0x3e, 0x82, 0xdf, 0x98, 0x3d, 0x73, 0xed, 0xa1, 0xbe,
  0x39, 0x49, 0xf3, 0x3c, 0x08, 0x78, 0x32, 0xba, 0x14, 0x12, 0x35, 0x3e,
  0x91, 0xb9, 0x8d, 0x3d, 0x16, 0x1d, 0xf8, 0xbd, 0xb6, 0x72, 0x62, 0x3d,
  0x26, 0x7e, 0xc3, 0xbd, 0x8b, 0x52, 0x5a, 0x3d, 0xca, 0xcd, 0x05, 0x3e,
  0xf2, 0x38, 0xbe, 0xbc, 0x70, 0xd4, 0x18, 0x3d, 0x35, 0xab, 0x4a, 0xbe,
  0xc4, 0x8f, 0x42, 0xbd, 0x28, 0xbb, 0x02, 0x3e, 0xa2, 0x62, 0xbe, 0x3d,
  0x74, 0x1e, 0xa4, 0xbd, 0x65, 0xe3, 0x08, 0x3d, 0xd5, 0xf7, 0x5f, 0xbe,
  0x8f, 0x9b, 0xb3, 0xbe, 0xbb, 0xa7, 0x81, 0xbb, 0x8d, 0x30, 0x33, 0x3e,
  0x13, 0x81, 0x68, 0xbd, 0xe0, 0x9f, 0x87, 0xbe, 0x8d, 0xa9, 0x87, 0xbe,
  0x98, 0x4f, 0x0a, 0xbe, 0xf6, 0x91, 0xcc, 0xbe, 0x02, 0x5e, 0x5d, 0xbe,
  0xd7, 0x34, 0x5b, 0xbe, 0x74, 0x5c, 0x77, 0xbe, 0x36, 0x4b, 0x30, 0xbe,
  0x46, 0x97, 0x86, 0xbe, 0xea, 0xb4, 0x73, 0xbd, 0x0c, 0xbe, 0x6a, 0xbc,
  0x60, 0x0e, 0x7a, 0xbe, 0x92, 0x18, 0x18, 0xbd, 0x9f, 0x98, 0x8f, 0xbe,
  0x73, 0xf3, 0x39, 0xbe, 0x4e, 0xbf, 0xfe, 0xbd, 0x5c, 0x21, 0x82, 0xbc,
  0x75, 0x63, 0x68, 0xbb, 0x7a, 0xf7, 0x99, 0xbc, 0xef, 0x89, 0xa1, 0xbe,
  0x1f, 0xf5, 0xf0, 0x3b, 0xde, 0x72, 0x07, 0x3d, 0xf0, 0x9e, 0x4b, 0xbe,
  0xb0, 0x51, 0xae, 0xbe, 0x18, 0xc1, 0x22, 0xbe, 0x06, 0x09, 0xfe, 0xbd,
  0x8a, 0xf1, 0x91, 0xbe, 0x11, 0xb1, 0x9a, 0xbc, 0x82, 0x1d, 0x51, 0xbe,
  0x02, 0xb9, 0x98, 0xbe, 0x79, 0x51, 0xc9, 0x3d, 0x55, 0xba, 0x47, 0xbe,
  0x3d, 0xfa, 0xa4, 0xbc, 0x5a, 0xd1, 0xc8, 0x3b, 0xa5, 0x27, 0x4c, 0xbe,
  0x2a, 0x77, 0xb4, 0xbe, 0xff, 0xb9, 0xf9, 0x3c, 0xfd, 0xc1, 0x4d, 0x3d,
  0x06, 0x05, 0x02, 0xbe, 0x47, 0x16, 0x10, 0xbe, 0x88, 0x0a, 0x89, 0xbe,
  0x85, 0x1c, 0x5a, 0xbe, 0x8b, 0x86, 0xd4, 0xbe, 0xcf, 0x02, 0xa3, 0xbd,
  0x38, 0x98, 0xc9, 0xbe, 0xda, 0x1b, 0xf2, 0x3d, 0x93, 0x78, 0xdf, 0xbd,
  0xfe, 0xec, 0x21, 0xbe, 0x24, 0x15, 0x93, 0xbe, 0x65, 0xef, 0xb1, 0xbe,
  0x37, 0x8d, 0x00, 0x3e, 0x58, 0x7e, 0xb8, 0xbe, 0xaf, 0x1f, 0x70, 0xbe,
  0x73, 0x86, 0xbd, 0x3c, 0xb0, 0xa9, 0x30, 0xbe, 0xe9, 0x56, 0x1c, 0xbe,
  0x27, 0x4d, 0x25, 0xbf, 0xfb, 0x4b, 0xbd, 0xbd, 0x0d, 0x39, 0x9f, 0x3e,
  0x8d, 0x94, 0xf3, 0x3e, 0xc7, 0x2e, 0xaf, 0xbe, 0x55, 0xed, 0x73, 0x3e,
  0x0c, 0x34, 0x23, 0x3c, 0xc4, 0x71, 0x04, 0xbe, 0xc8, 0xf4, 0xca, 0x3e,
  0x8d, 0x6f, 0xbf, 0x3d, 0xc7, 0x99, 0x78, 0xbd, 0x4e, 0xec, 0x85, 0x3e,
  0x45, 0x4d, 0xf2, 0x3d, 0x6e, 0x00, 0xb5, 0xbb, 0x94, 0x9c, 0xcd, 0x3d,
  0x3f, 0xaa, 0x55, 0xbe, 0xf3, 0xbb, 0xaa, 0x3c, 0xc7, 0x52, 0xea, 0xbb,
  0x29, 0xa6, 0x4d, 0x3e, 0x17, 0x42, 0x49, 0x3e, 0x08, 0xd5, 0xfb, 0xbd,
  0xe5, 0x59, 0x4e, 0x3e, 0xf0, 0x27, 0xeb, 0x3c, 0x58, 0x4b, 0x2b, 0xbd,
  0x81, 0x5d, 0xb6, 0x3e, 0xe6, 0xc5, 0x42, 0x3c, 0x9a, 0x76, 0x43, 0xbe,
  0xfe, 0xc9, 0x76, 0x3e, 0xcb, 0x01, 0x50, 0xbd, 0x93, 0x9c, 0x0c, 0xbe,
  0x57, 0xea, 0xb1, 0xbc, 0x3e, 0xdf, 0x67, 0xbe, 0x27, 0x24, 0x30, 0xbd,
  0x01, 0xbc, 0x15, 0xbe, 0xe4, 0xf3, 0xc7, 0x3d, 0x69, 0x85, 0x5f, 0xbc,
  0xdf, 0x73, 0xe8, 0xbb, 0xf0, 0xb9, 0xaa, 0x3e, 0x03, 0x86, 0x57, 0xbb,
  0x14, 0x4a, 0x08, 0x3e, 0x59, 0x4b, 0x92, 0x3e, 0x18, 0xd2, 0x00, 0x3e,
  0x0a, 0xa6, 0xf7, 0xbc, 0x9d, 0x6e, 0x49, 0x3e, 0xeb, 0xfb, 0x0b, 0x3d,
  0x36, 0x5c, 0xda, 0xbc, 0x34, 0x26, 0x5e, 0x3e, 0x2c, 0x84, 0x5d, 0xbd,
  0x09, 0xda, 0xde, 0xbc, 0x4a, 0x31, 0x53, 0xbe, 0x4a, 0xfe, 0xff, 0xff,
  0x10, 0x00, 0x00, 0x00, 0x05, 0x00, 0x00, 0x00, 0x14, 0x00, 0x00, 0x00,
  0x2c, 0x00, 0x00, 0x00, 0x02, 0x00, 0x00, 0x00, 0x10, 0x00, 0x00, 0x00,
  0x70, 0x00, 0x00, 0x00, 0x17, 0x00, 0x00, 0x00, 0x73, 0x65, 0x71, 0x75,
  0x65, 0x6e, 0x74, 0x69, 0x61, 0x6c, 0x2f, 0x64, 0x65, 0x6e, 0x73, 0x65,
  0x2f, 0x4d, 0x61, 0x74, 0x4d, 0x75, 0x6c, 0x00, 0x38, 0xfe, 0xff, 0xff,
  0x2e, 0xff, 0xff, 0xff, 0x04, 0x00, 0x00, 0x00, 0x08, 0x00, 0x00, 0x00,
  0xff, 0xff, 0xff, 0xff, 0x70, 0x00, 0x00, 0x00, 0x00, 0x00, 0x0e, 0x00,
  0x18, 0x00, 0x08, 0x00, 0x07, 0x00, 0x0c, 0x00, 0x10, 0x00, 0x14, 0x00,
  0x0e, 0x00, 0x00, 0x00, 0x00, 0x00, 0x00, 0x02, 0x10, 0x00, 0x00, 0x00,
  0x04, 0x00, 0x00, 0x00, 0x10, 0x00, 0x00, 0x00, 0x2c, 0x00, 0x00, 0x00,
  0x01, 0x00, 0x00, 0x00, 0x02, 0x00, 0x00, 0x00, 0x18, 0x00, 0x00, 0x00,
  0x73, 0x65, 0x71, 0x75, 0x65, 0x6e, 0x74, 0x69, 0x61, 0x6c, 0x2f, 0x66,
  0x6c, 0x61, 0x74, 0x74, 0x65, 0x6e, 0x2f, 0x43, 0x6f, 0x6e, 0x73, 0x74,
  0x00, 0x00, 0x00, 0x00, 0xa0, 0xfe, 0xff, 0xff, 0x96, 0xff, 0xff, 0xff,
  0x04, 0x00, 0x00, 0x00, 0x0c, 0x00, 0x00, 0x00, 0x67, 0xa7, 0x6e, 0xbd,
  0xb7, 0x97, 0x38, 0xc0, 0xb6, 0x38, 0xd7, 0x3f, 0x0a, 0xff, 0xff, 0xff,
  0x10, 0x00, 0x00, 0x00, 0x03, 0x00, 0x00, 0x00, 0x10, 0x00, 0x00, 0x00,
  0x3c, 0x00, 0x00, 0x00, 0x01, 0x00, 0x00, 0x00, 0x03, 0x00, 0x00, 0x00,
  0x29, 0x00, 0x00, 0x00, 0x73, 0x65, 0x71, 0x75, 0x65, 0x6e, 0x74, 0x69,
  0x61, 0x6c, 0x2f, 0x64, 0x65, 0x6e, 0x73, 0x65, 0x5f, 0x31, 0x2f, 0x42,
  0x69, 0x61, 0x73, 0x41, 0x64, 0x64, 0x2f, 0x52, 0x65, 0x61, 0x64, 0x56,
  0x61, 0x72, 0x69, 0x61, 0x62, 0x6c, 0x65, 0x4f, 0x70, 0x00, 0x00, 0x00,
  0x60, 0xff, 0xff, 0xff, 0x00, 0x00, 0x06, 0x00, 0x08, 0x00, 0x04, 0x00,
  0x06, 0x00, 0x00, 0x00, 0x04, 0x00, 0x00, 0x00, 0x40, 0x00, 0x00, 0x00,
  0xa3, 0x3b, 0x0f, 0xbf, 0x18, 0x59, 0xd6, 0xbf, 0x7c, 0xe3, 0x04, 0xbf,
  0xcb, 0x86, 0x6b, 0xbe, 0x37, 0xe7, 0x4a, 0xba, 0x22, 0xd2, 0x87, 0xbf,
  0xab, 0xe5, 0x43, 0xbd, 0x14, 0x28, 0x10, 0xbb, 0x67, 0x3d, 0x39, 0xbc,
  0xb2, 0x88, 0x6f, 0xbe, 0x98, 0x68, 0x94, 0xbf, 0xc8, 0xf9, 0x03, 0xbe,
  0xd7, 0xc4, 0x73, 0xbf, 0x6c, 0xf7, 0xd2, 0x40, 0xd5, 0xaf, 0x6c, 0xbf,
  0xa8, 0xe3, 0xec, 0xbe, 0xae, 0xff, 0xff, 0xff, 0x10, 0x00, 0x00, 0x00,
  0x02, 0x00, 0x00, 0x00, 0x10, 0x00, 0x00, 0x00, 0x3c, 0x00, 0x00, 0x00,
  0x01, 0x00, 0x00, 0x00, 0x10, 0x00, 0x00, 0x00, 0x27, 0x00, 0x00, 0x00,
  0x73, 0x65, 0x71, 0x75, 0x65, 0x6e, 0x74, 0x69, 0x61, 0x6c, 0x2f, 0x64,
  0x65, 0x6e, 0x73, 0x65, 0x2f, 0x42, 0x69, 0x61, 0x73, 0x41, 0x64, 0x64,
  0x2f, 0x52, 0x65, 0x61, 0x64, 0x56, 0x61, 0x72, 0x69, 0x61, 0x62, 0x6c,
  0x65, 0x4f, 0x70, 0x00, 0x04, 0x00, 0x06, 0x00, 0x04, 0x00, 0x00, 0x00,
  0x00, 0x00, 0x0e, 0x00, 0x14, 0x00, 0x04, 0x00, 0x00, 0x00, 0x08, 0x00,
  0x0c, 0x00, 0x10, 0x00, 0x0e, 0x00, 0x00, 0x00, 0x10, 0x00, 0x00, 0x00,
  0x01, 0x00, 0x00, 0x00, 0x1c, 0x00, 0x00, 0x00, 0x2c, 0x00, 0x00, 0x00,
  0x04, 0x00, 0x00, 0x00, 0x01, 0x00, 0x00, 0x00, 0x40, 0x00, 0x00, 0x00,
  0x03, 0x00, 0x00, 0x00, 0x01, 0x00, 0x00, 0x00, 0x0c, 0x00, 0x00, 0x00,
  0x63, 0x6f, 0x6e, 0x76, 0x32, 0x64, 0x5f, 0x69, 0x6e, 0x70, 0x75, 0x74,
  0x00, 0x00, 0x00, 0x00, 0xfc, 0xff, 0xff, 0xff, 0x04, 0x00, 0x04, 0x00,
  0x04, 0x00, 0x00, 0x00
};

unsigned int model_tflite_len = 12316;// Fill the int in `src/model.cc` here